node {
  name: "global_step/Initializer/zeros"
  op: "Const"
  attr {
    key: "_class"
    value {
      list {
        s: "loc:@global_step"
      }
    }
  }
  attr {
    key: "_output_shapes"
    value {
      list {
        shape {
        }
      }
    }
  }
  attr {
    key: "dtype"
    value {
      type: DT_INT64
    }
  }
  attr {
    key: "value"
    value {
      tensor {
        dtype: DT_INT64
        tensor_shape {
        }
        int64_val: 0
      }
    }
  }
}
node {
  name: "global_step"
  op: "VarHandleOp"
  attr {
    key: "_class"
    value {
      list {
        s: "loc:@global_step"
      }
    }
  }
  attr {
    key: "_output_shapes"
    value {
      list {
        shape {
        }
      }
    }
  }
  attr {
    key: "container"
    value {
      s: ""
    }
  }
  attr {
    key: "dtype"
    value {
      type: DT_INT64
    }
  }
  attr {
    key: "shape"
    value {
      shape {
      }
    }
  }
  attr {
    key: "shared_name"
    value {
      s: "global_step"
    }
  }
}
node {
  name: "global_step/IsInitialized/VarIsInitializedOp"
  op: "VarIsInitializedOp"
  input: "global_step"
  attr {
    key: "_output_shapes"
    value {
      list {
        shape {
        }
      }
    }
  }
}
node {
  name: "global_step/Assign"
  op: "AssignVariableOp"
  input: "global_step"
  input: "global_step/Initializer/zeros"
  attr {
    key: "dtype"
    value {
      type: DT_INT64
    }
  }
}
node {
  name: "global_step/Read/ReadVariableOp"
  op: "ReadVariableOp"
  input: "global_step"
  attr {
    key: "_output_shapes"
    value {
      list {
        shape {
        }
      }
    }
  }
  attr {
    key: "dtype"
    value {
      type: DT_INT64
    }
  }
}
node {
  name: "global_step/VarIsInitializedOp"
  op: "VarIsInitializedOp"
  input: "global_step"
  attr {
    key: "_output_shapes"
    value {
      list {
        shape {
        }
      }
    }
  }
}
node {
  name: "global_step/cond"
  op: "If"
  input: "global_step/VarIsInitializedOp"
  input: "global_step"
  input: "global_step/Initializer/zeros"
  attr {
    key: "Tcond"
    value {
      type: DT_BOOL
    }
  }
  attr {
    key: "Tin"
    value {
      list {
        type: DT_RESOURCE
        type: DT_INT64
      }
    }
  }
  attr {
    key: "Tout"
    value {
      list {
        type: DT_INT64
      }
    }
  }
  attr {
    key: "_lower_using_switch_merge"
    value {
      b: true
    }
  }
  attr {
    key: "_output_shapes"
    value {
      list {
        shape {
        }
      }
    }
  }
  attr {
    key: "else_branch"
    value {
      func {
        name: "global_step_cond_false_13462"
      }
    }
  }
  attr {
    key: "output_shapes"
    value {
      list {
        shape {
        }
      }
    }
  }
  attr {
    key: "then_branch"
    value {
      func {
        name: "global_step_cond_true_13461"
      }
    }
  }
}
node {
  name: "global_step/cond/Identity"
  op: "Identity"
  input: "global_step/cond"
  attr {
    key: "T"
    value {
      type: DT_INT64
    }
  }
  attr {
    key: "_output_shapes"
    value {
      list {
        shape {
        }
      }
    }
  }
}
node {
  name: "global_step/add/y"
  op: "Const"
  attr {
    key: "_output_shapes"
    value {
      list {
        shape {
        }
      }
    }
  }
  attr {
    key: "dtype"
    value {
      type: DT_INT64
    }
  }
  attr {
    key: "value"
    value {
      tensor {
        dtype: DT_INT64
        tensor_shape {
        }
        int64_val: 0
      }
    }
  }
}
node {
  name: "global_step/add"
  op: "AddV2"
  input: "global_step/cond/Identity"
  input: "global_step/add/y"
  attr {
    key: "T"
    value {
      type: DT_INT64
    }
  }
  attr {
    key: "_output_shapes"
    value {
      list {
        shape {
        }
      }
    }
  }
}
node {
  name: "normalize_element/component_0"
  op: "Const"
  device: "/device:CPU:0"
  attr {
    key: "_output_shapes"
    value {
      list {
        shape {
          dim {
            size: 400
          }
        }
      }
    }
  }
  attr {
    key: "dtype"
    value {
      type: DT_DOUBLE
    }
  }
  attr {
    key: "value"
    value {
      tensor {
        dtype: DT_DOUBLE
        tensor_shape {
          dim {
            size: 400
          }
        }
        tensor_content: "fffff\006X@\315\314\314\314\314\254W@333333\007@\000\000\000\000\000\2001@fffff&C@\232\231\231\231\231\231B@\000\000\000\000\000\2002@33333\2631@\000\000\000\000\000\200V@\315\314\314\314\314,W@\000\000\000\000\000\000Y@\315\314\314\314\314\014M@\000\000\000\000\000\000V@fffff&U@fffff\246T@\232\231\231\231\231YX@ffffff\032@\000\000\000\000\000\300R@\232\231\231\231\231\271T@\315\314\314\314\314\014L@ffffff5@333333>@\315\314\314\314\314\354T@ffffffV@\000\000\000\000\000\000Y@\000\000\000\000\000\000K@\315\314\314\314\314LP@fffff&W@\232\231\231\231\231YX@fffff\246Q@33333\223U@\232\231\231\231\231yR@fffff&W@\232\231\231\231\2319S@\000\000\000\000\000@W@33333SW@33333\263V@\000\000\000\000\000\0001@\315\314\314\314\314\254X@\000\000\000\000\000`W@\315\314\314\314\314\314M@\232\231\231\231\231YU@\315\314\314\314\314\214X@\232\231\231\231\231\271X@\315\314\314\314\314\314S@\000\000\000\000\000\240U@33333\263N@33333\263X@\000\000\000\000\000\000Y@\315\314\314\314\314LB@\315\314\314\314\314lX@\000\000\000\000\000\000Y@\232\231\231\231\231\031W@33333\363W@\000\000\000\000\000\000Y@\315\314\314\314\314,P@\000\000\000\000\000\2001@fffff\206X@33333\363A@fffff\246T@\315\314\314\314\314\354W@fffff\346P@\000\000\000\000\000\340T@\000\000\000\000\000@C@\232\231\231\231\231\331W@\232\231\231\231\231YP@\315\314\314\314\314\014W@fffff&V@\000\000\000\000\000\000Y@\315\314\314\314\314\214D@\000\000\000\000\000\000Y@\232\231\231\231\231yW@\000\000\000\000\000 S@\232\231\231\231\231\031X@\232\231\231\231\231\331E@\000\000\000\000\000\000Y@\315\314\314\314\314LB@\315\314\314\314\314\214N@\315\314\314\314\314L6@\315\314\314\314\314\014C@fffff\246@@\000\000\000\000\000\000V@fffff\006Q@33333\263;@\315\314\314\314\314\3144@\315\314\314\314\314\314<@\232\231\231\231\231\031W@\000\000\000\000\000\000Y@\315\314\314\314\314lS@333333X@\232\231\231\231\231YR@\000\000\000\000\000\000Y@\000\000\000\000\000\000Y@fffffFU@\232\231\231\231\231yX@fffff\006U@\315\314\314\314\314\214F@fffff\3466@\000\000\000\000\000\200X@33333\263W@\232\231\231\231\231YG@fffff\346V@\232\231\231\231\231\271R@\232\231\231\231\231\231Q@\232\231\231\231\231\271U@333333E@\000\000\000\000\000\000\032@33333\223W@\232\231\231\231\231yW@\000\000\000\000\000\000Y@\000\000\000\000\000 V@\315\314\314\314\314\3148@ffffff2@\000\000\000\000\000\000X@\232\231\231\231\231\231Q@fffff\346<@\315\314\314\314\314\3142@33333s@@\232\231\231\231\231\371U@333333V@\315\314\314\314\314L?@\000\000\000\000\000@S@\000\000\000\000\000@X@\000\000\000\000\000\000Y@\232\231\231\231\231YM@\000\000\000\000\000\000Y@\315\314\314\314\314\014D@33333\323V@\315\314\314\314\314\314J@333333L@\000\000\000\000\000\240T@33333sB@\232\231\231\231\231\231J@fffffFV@\315\314\314\314\314\014X@\315\314\314\314\314\354S@fffff\306X@33333\263X@\232\231\231\231\231\031<@33333\323T@333333D@\232\231\231\231\231\031@@\000\000\000\000\000@M@\315\314\314\314\314\314J@\000\000\000\000\000\000Y@\315\314\314\314\314L7@\232\231\231\231\231\231V@33333sA@\000\000\000\000\000\000@@333333F@ffffff/@33333\363D@\000\000\000\000\000\200O@\000\000\000\000\000\340V@\000\000\000\000\000 U@33333\323U@33333\323X@\232\231\231\231\231\371S@fffffFQ@\232\231\231\231\231\331W@fffff\346F@\315\314\314\314\314\354V@33333sS@\232\231\231\231\2319X@\232\231\231\231\231\231@@\315\314\314\314\314\314#@\232\231\231\231\231\031O@33333\223X@ffffff7@\315\314\314\314\314lU@333333M@fffff&X@33333\223Q@\000\000\000\000\000\000X@33333\263R@fffff\206X@\232\231\231\231\231yX@fffff\346L@33333sT@\000\000\000\000\000\000Y@\000\000\000\000\000`U@fffff&@@\315\314\314\314\314\314V@33333\223V@\000\000\000\000\000\300T@\000\000\000\000\000\000Y@\000\000\000\000\000\240U@33333\263;@\232\231\231\231\231yX@\000\000\000\000\000\240T@\315\314\314\314\314\254S@fffff\346Q@\232\231\231\231\231\231G@\000\000\000\000\000\000Y@\315\314\314\314\314lQ@\232\231\231\231\231\031@@\232\231\231\231\231YV@\232\231\231\231\231YM@333333T@\000\000\000\000\000\240W@\232\231\231\231\231\271S@fffff\346N@\315\314\314\314\314LV@fffff\246P@33333sW@\000\000\000\000\000@A@\315\314\314\314\314LE@\000\000\000\000\000\240W@333333K@\000\000\000\000\000\000Y@\315\314\314\314\314\014B@\315\314\314\314\314\214X@\315\314\314\314\314\214@@\000\000\000\000\000\2002@\000\000\000\000\000\200?@\000\000\000\000\000\000X@\000\000\000\000\000\000Y@\232\231\231\231\231\331W@33333SW@\000\000\000\000\000`Q@\000\000\000\000\000\000Y@\000\000\000\000\000\000Y@33333\023T@33333SX@\000\000\000\000\000\000Y@\232\231\231\231\231\331W@\315\314\314\314\314\314S@\000\000\000\000\000\000H@\232\231\231\231\2319W@\315\314\314\314\314L=@\232\231\231\231\231\031=@fffff\006W@\315\314\314\314\314L0@33333\223W@\000\000\000\000\000\000Y@33333\363V@\315\314\314\314\314\014E@33333\263X@\232\231\231\231\231\231G@333333\037@\000\000\000\000\000\000Y@\315\314\314\314\314\214P@\232\231\231\231\231\031?@\232\231\231\231\231\331T@\315\314\314\314\314\314T@ffffffQ@33333\263X@\315\314\314\314\314lT@\000\000\000\000\000\200W@333333Q@33333\323W@\315\314\314\314\314,U@\315\314\314\314\314\314\030@\315\314\314\314\314,S@\000\000\000\000\000\000Y@33333\363S@\315\314\314\314\314,Q@\000\000\000\000\000\240P@\000\000\000\000\000\000Y@\232\231\231\231\231\231#@\315\314\314\314\314\014X@ffffffW@fffff\006X@33333\263F@\000\000\000\000\000\000U@\232\231\231\231\231\331H@fffff&W@ffffffL@fffff&K@33333\263V@fffff\306V@333333\037@\000\000\000\000\000\300W@fffff\246H@fffff\006U@\232\231\231\231\231\0315@fffffFX@\315\314\314\314\314\014@@\000\000\000\000\000\300@@fffff\206W@\232\231\231\231\231\371V@fffff\246Q@\000\000\000\000\000\000Y@\000\000\000\000\000\000M@\232\231\231\231\231YX@\232\231\231\231\2319W@\315\314\314\314\314,R@fffff\346I@\232\231\231\231\231\331F@\000\000\000\000\000@A@33333sV@fffff\3465@\000\000\000\000\000 R@fffff\346?@\232\231\231\231\231\031E@\000\000\000\000\000@X@\315\314\314\314\314\214X@\000\000\000\000\000\300P@ffffff<@\315\314\314\314\314LX@\000\000\000\000\000@J@\232\231\231\231\231YU@\000\000\000\000\000\000Y@\000\000\000\000\000\000Y@\232\231\231\231\231\331J@\000\000\000\000\000 S@fffff\246W@\232\231\231\231\231YW@\315\314\314\314\314\314W@333333T@\232\231\231\231\231\031?@\000\000\000\000\000@D@fffff&G@fffff&K@\232\231\231\231\231\371U@\315\314\314\314\314\014X@\000\000\000\000\000\240X@33333sW@\232\231\231\231\2319R@\232\231\231\231\231\0314@\000\000\000\000\000\000@@fffff\246B@\232\231\231\231\231\231X@3333331@33333SS@\232\231\231\231\231\371U@\000\000\000\000\000\000Y@\232\231\231\231\231\271X@\315\314\314\314\314\314G@fffff\346@@333333\033@33333\223S@\000\000\000\000\000@X@\000\000\000\000\000\000Y@\000\000\000\000\000\000S@\000\000\000\000\000\300M@\000\000\000\000\000\200F@\000\000\000\000\000`X@fffff\346<@fffff&D@\315\314\314\314\314\3145@\000\000\000\000\000\240R@\315\314\314\314\314\314>@\000\000\000\000\000\300N@33333sX@33333sJ@\000\000\000\000\000\2003@fffff\206U@\315\314\314\314\314lS@\232\231\231\231\231yX@fffff\346;@\000\000\000\000\000\300W@33333\363I@\000\000\000\000\000\000Y@\232\231\231\231\231\031V@\232\231\231\231\231\031@@fffff\206P@33333\223R@\315\314\314\314\314\214Q@fffff&J@\232\231\231\231\231YL@\315\314\314\314\314\214H@fffffFR@\315\314\314\314\314LB@\315\314\314\314\314\214X@\232\231\231\231\231\331U@fffff\346W@\232\231\231\231\231\331V@33333sC@\232\231\231\231\231\331A@\315\314\314\314\314\314F@\232\231\231\231\231\231;@ffffff-@\232\231\231\231\231\371V@33333SX@\315\314\314\314\314LP@\315\314\314\314\314\254W@\000\000\000\000\000\000Y@\232\231\231\231\231\031A@\000\000\000\000\000\000$@33333\323U@\232\231\231\231\231\231.@ffffff5@\315\314\314\314\314\314+@33333SR@\315\314\314\314\314\314V@\000\000\000\000\000\000Y@\000\000\000\000\000\000V@\000\000\000\000\000\000\030@\000\000\000\000\000 P@fffffFP@\232\231\231\231\231\231X@\000\000\000\000\000\000Y@\000\000\000\000\000\000Y@333333=@33333SP@\000\000\000\000\000\000L@\000\000\000\000\000\200T@fffff\206S@ffffff\032@"
      }
    }
  }
}
node {
  name: "normalize_element/component_1"
  op: "Const"
  device: "/device:CPU:0"
  attr {
    key: "_output_shapes"
    value {
      list {
        shape {
          dim {
            size: 400
          }
        }
      }
    }
  }
  attr {
    key: "dtype"
    value {
      type: DT_DOUBLE
    }
  }
  attr {
    key: "value"
    value {
      tensor {
        dtype: DT_DOUBLE
        tensor_shape {
          dim {
            size: 400
          }
        }
        tensor_content: "H\277}\0358g\002@\2343\242\2647\270*@\000\343\0314\364O\300?\337\333\364g?R\304?\t3m\377\312J\243?\2343\242\2647\370\242?\354\027\354\206m\213\262?\232\231\231\231\231\231\271?\345f\270\001\237?\023@\310$#gaO\303?\314]K\310\007-C@\257\261KTo\r\254?z1\224\023\355*\022@M\363\216St$\351?\200C\250R\263G\014@\207\242@\237\310\223\363?\200\202\213\0255\230\266??\035\217\031\250\214\014@\320,\tPS\313\013@>\350\331\254\372\\\255?\215\013\007B\262\200\251?+\030\225\324\th\306?\303G\304\224H\002\037@F\266\363\375\324\210 @_$\264\345\\\252\026@\345\355\010\247\005/\306?Hm\342\344~\207\302?\000:\314\227\027`\364?4\235\235\014\216\222\031@\331\003\255\300\220\225!@B>\350\331\254\372\254?\375M(D\300!\244?\265\211\223\373\035J!@T\313\326\372\"\241\335?1\010\254\034Zd\007@\372~j\274t\223.@\231d\344,\354i\367?\241\241\177\202\213\025\323?\233\341\006|~\250\"@\203i\030>\"\246\324?3\254\342\215\314#\237?\210\205Z\323\274\303D@\267\234KqU\331\341?k`\253\004\213\303\325?<I\272f\362\315\374?\206\224\237T\373t\330?R~R\355\323\361\270?\204*5{\240\245#@\202sF\224\366\346\'@\270\222\035\033\201x\265?\237q\341@H\026\363?\215\234\205=\355\360\367?[\323\274\343\024\r6@\202\250\373\000\2446\271?\200\274W\255L\370\037@\316N\006G\311K\027@\265\333.4\327i\310?\201[w\363T\007\364?\'1\010\254\034Z\264?l\317,\tPS\303?P6\345\n\357\362\002@\021p\010Uj\226\022@:\006d\257w\177\274?\245\210\014\253x#\243?$EdX\305\033\325?\317\203\273\263v[\037@\004s\364\370\275M\267?\224j\237\216\307\014\330?Ve\337\025\301_\"@)\\\217\302\365(\264?\273\270\215\006\360v\"@G\254\305\247\000\310\"@\377\t.V\324`\312?\272\325s\322\373&\031@\266l\255/\022\332\316?\376e\367\344a\221I@V\202\305\341\314\257\351?5\007\010\346\350\361\233?\331\231B\3475v\301?J\265O\307c\006\252?\225\361\3573.\034\310?->\005\300x\006\362?\311v\276\237\032/\341?Uj\366@+0\264?X4\235\235\014\216\202?)\320\'\362$\351\306?sh\221\355|?\275?\331=yX\250\0252@\025\000\343\0314\364\343?v\345\263<\017\256\026@-\262\235\357\247\306\253?\320\263Y\365\271Z.@\325s\322\373\306\227\023@\335A\354L\2413\034@]\376C\372\355\2333@\201&\302\206\247W\262?\252\t\242\356\003\220\252?\307\021k\361)\000\246?X4\235\235\014\216\312?V}\256\266b\177\345?\312\246\\\341].\242?\321W\220f,\232\341?\242\271N#-\325\026@I\272f\362\3156\325?RD\206U\274\221\343?\r\032\372\'\270X\311?\0221%\222\350e\304?\344\024\035\311\345\037$@\313\204_\352\347M\370?A\361c\314]\013+@W`\310\352V\317\301?\222W\347\030\220\275\216?\270\257\003\347\214(\265?>\350\331\254\372|\027@\361\272~\301n\330\246?\261KTo\rl\323?\270\222\035\033\201x\215?\331Z_$\264\345\254?\261U\202\305\341\254\022@\367\356\217\367\252\225\356?\375j\016\020\314\321\243?\315\222\0005\265\354\026@\200\267@\202\342\'\'@}\263\315\215\351\t\313?-!\037\364lV\275?b\204\360h\343\010\003@j\207\277&k\324\325?d#\020\257\353\027\332?\276\331\346\306\364\204\245?\356_YiR\n\232?\315@e\374\373\214\337?h\005\206\254n\365\264?G\376`\340\271W\023@\033\236^)\313\3609@\350\361{\233\376l\r@\2000\360\334{\270\314?\253>W[\261\277/@2\311\310Y\330\323\324?\232\217kC\3058\237?\004\342u\375\202\335\260?\316\337\204B\004\034\242?jH\334c\351C\247?\347\000\301\034=~\257?\347\005\330G\247\256\254?\3122\304\261.bR@\255n\365\234\364\276\241?\345,\354i\207\277\320?\217\307\014T\306\277\325?\006\r\375\023\\\254\250?\261U\202\305\341\314\257?\354\273\"\370\337J\226?H\371I\265O\007\003@MJA\267\2274\246?\023\355*\244\374\244\340?D\377\004\027+j\344?\322\000\336\002\t\n\360?\345\355\010\247\005\177 @\017\227\034wJ\007\303?b\234\277\t\205\010\260?c\177\331=y\270/@\3367\276\366\314\222\240?d\321tv2\270\363?0L\246\nF\325#@\004[%X\034\316\371?\r\340-\220\240\370\241?0\330\r\333\026e\226?\3745Y\243\036\242\261?\177\244\210\014\253x\307?n4\200\267@\202\242?\331Z_$\264\345\352?\325\347j+\366\227\255?Dio\360\205\331#@\033\323\023\226x@\251?\240\211\260\341\351\225\320?\273\'\017\013\265\306\031@\217\344\362\037\322\3170@\315\222\0005\265l\341?v\310\315p\003>\277?\016\303G\304\224H\341?b\241\3264\357x,@\014\032\372\'\270X\315?\261\21272\217\374\301?\220\245\017]P\337\320?\034_{fI\200\345?;\3745Y\243\236\032@q\254\213\333h\340,@Q\367\001Hm\002\023@\022\245\275\301\027&\223?\313\271\024W\225\235\035@\007_\230L\025,\025@x\234\242#\271\324B@\342\222\343N\351`\340?\215\264T\336\216p\272?\264Y\365\271\332\252,@(D\300!T\251\261?\316\245\270\252\354\273\242?\362v\204\323\202\027\341?Tt$\227\377\220\236?\010=\233U\237\253\343?\000\005\027+j\260\021@\020@j\023\'\367\233?\327\206\212q\376&\344?jH\334c\351C\353?\321W\220f,\232\266?\204\206\376\t.V\274?+j0\r\303G\244?\206U\274\221y\344\321?\177M\326\250\207h\352?\032\335A\354L\241\273?yX\2505\315\0139@r\304Z|\n\200\221?\273,&6\037W\375?\035\376\232\254Q\017\261?{\332\341\257\311\032\265?\2201w-!\037\224?\0054\0216<\3158@\341\013\223\251\202\221\n@t\315\344\233mn\314?HP\374\030s\327,@D\372\355\353\3009\347?\261U\202\305\341\314\366?}\320\263Y\365\031,@\237v\370k\262f @\353s\265\025\373\013.@?\313\363\340\356\254\365??\343\302\201\220\034 @\323\366\257\2544)\311?,`\002\267\356\346\251?\347\343\332P1\316\267?[_$\264\345\334\360?\266\370\024\000\343\031\300?\206\346:\215\264T\306?9b->\005\300\304?\267E\231\r2\311\314?\326\305m4\200\337F@T\336\216pZ\360\001@\366]\021\374o%\323?\345\320\"\333\371n!@Dn\206\033\360\371\261?\204d\001\023\270u\267?0*\251\023\320d8@\224\301Q\362\352\034\303?\005\377[\311\216\215\300?tA}\313\234\316\024@\037\021S\"\211^\324?\336Y\273\355Bs\275?\305\010\341\321\306\021\273?\016\2760\231*\030\351?\3367\276\366\314\222\003@\275:\307\200\354\365\256?\217\337\333\364g?\320?\302n\330\266(3\016@\212\223\373\035\212\002\311?\315;N\321\221\\\326??W[\261\277,&@1\010\254\034Z\304\026@\035=~o\323\237\265?|Ic\264\216\252\334?\200\267@\202\342\247<@\234\242#\271\374\207\322?M\370\245~\336\024\000@#\241-\347R|\023@\252\202QI\235\200\302?\206\261\205 \007%\254?\367\257\2544)e\021@6\310$#ga\257?\220\275\336\375\361\336\032@\003CV\267zN\262?9\276\366\314\222\000\275?z\245,C\034\253%@\213\340\177+\331\261\016@2\261\371\2706T\300?\314bb\363qm\362?\023\355*\244\374\244\212?\002Hm\342\344~\267?S\226!\216uq\253?\027\361\235\230\365b\300?\"\370\337Jvl\264?\220\332\304\311\375\016\245?\017\326\3779\314\027\362?\274\226\220\017z>V@w\241\271N#-\321?,e\031\342X7&@\350\237\340bE\r\302?e\215z\210F\367!@\310\200\354\365\356\217\277?\215\321:\252\232 \320?.x\321W\220f\314?\201\220,`\002\267\266?\253\347\244\367\215\257\235?M\241\363\032\273D\265?\232%\001jj\331\212?\017bg\n\235\327\300?Q\024\350\023y\222\224?\345\3259\006d\257\267?9z\374\336\246?\303?\3578EGr\371\317?\031\377>\343\302\201\342?\201`\216\036\277\267\251?\246\325\220\270\307r#@J\357\033_{f\315?\325\004Q\367\001H\315?\342\314\257\346\0001#@\254Q\017\321\350\016\372?Gw\020;S\350\254?*t^c\227\250\340?\305\224H\242\227Q\363?_\2652\341\227\372\305?)\221D/\243\230\003@g\270\001\237\037F\250?@\237\310\223\244k\246?\300\004n\335\315S\215?]\304wb\326\213\241?\003\354\243SW>\307?3\277\232\003\004S\026@gDio\360\2457@\375\274\251H\2051\001@\241l\312\025\336\245\002@\177\373:p\316\210\322?\005\377[\311\216\215\260?F\261\334\322jH\214?\223\214\234\205=\355\240?\\\224\331 \223\214\326?\202\250\373\000\2446\261?#gaO;\374\245?aO;\37459\022@\3544\322Ry;\345?\034\010\311\002&\260\036@_\007\316\031Q\332\213?T\256\360.\027\361\305?\010wg\355\266\013\265?\312\246\\\341].\324?\267b\177\331=\331\033@,e\031\342X\2674@\220,`\002\267\356\276?\230\243\307\357m\372\223?\232\r2\311\310Y\270?d\222\221\263\260\'\032@q=\n\327\243p\235?\225\232=\320\n\214\006@\264\315\215\351\tK\234?\347\030\220\275\336\375\271?p\231\323e1\261\261?\022\245\275\301\027&\325?x\020;S\350<\006@\201&\302\206\247W\272?\323\244\024t{I\273?\316\302\236v\370\373 @|\270\344\270S:\320?R\'\240\211\260\341\342?Xni5$\356\241?2U0*\251\323+@\334^\322\030\255c\r@\t\212\037c\356\372P@\226>tA}\213\r@\350\301\335Y\273\355\312?A\016J\230i\373\247?]\212\253\312\276+\322?\3500_^\200}\310??\035\217\031\250\214\257?\365\333\327\201s&*@_\014\345D\273\n\305?\273~\301n\330\266\300?k\016\020\314\321\343\247?k\324C4\272\303\025@\365\326\300V\t\026\313?\'\302\206\247W\312\330?\336\223\207\205Z\223\r@\350\331\254\372\\m\265?\354/\273\'\017\013\225?9\326\305m4\200\247?\312\253s\014\310^\257?;\215\264T\336\216\310?\'\240\211\260\341\351\305?\214\333h\000o\201\372?\211\265\370\024\000\343y?333333\354?6T\214\3637\241\357?\036\217\031\250\214\177\217?)?\251\366\351x\254?\214\271k\t\371\240\327?T\343\245\233\304 \240?\300\347\207\021\302\243\255?\333m\027\232\3534\222?)\350\366\222\306h\342?/n\243\001\274\0254@V\016-\262\235\3172@\264Y\365\271\332\252,@f1\261\371\2706\264?\213\246\263\223\301Q\242?\321\226s)\256*\273?#\303*\336\310<\357?\001\336\002\t\212\1772@\210\205Z\323\274c\020@i\000o\201\004\305\303?\007\346\350\361{\233\316?\324+e\031\342X\247?\367\314\222\00055\366?d#\020\257\353w\035@\351&1\010\254\034\302?"
      }
    }
  }
}
node {
  name: "normalize_element/component_2"
  op: "Const"
  device: "/device:CPU:0"
  attr {
    key: "_output_shapes"
    value {
      list {
        shape {
          dim {
            size: 400
          }
        }
      }
    }
  }
  attr {
    key: "dtype"
    value {
      type: DT_DOUBLE
    }
  }
  attr {
    key: "value"
    value {
      tensor {
        dtype: DT_DOUBLE
        tensor_shape {
          dim {
            size: 400
          }
        }
        tensor_content: "\315\314\314\314\314\314\000@\3019#J{\203\374?\340\276\016\2343\342\026@.\220\240\3701&\025@#\333\371~j<\035@&S\005\243\222\372\024@\226\262\014q\254k%@\326\305m4\200\367\025@H\341z\024\256\307\004@\030\225\324\th\"\375?\023\362A\317f\325\367?\366(\\\217\302\365\n@0L\246\nF%\004@q\033\r\340-\020\001@!\260rh\221\355\373?(~\214\271k\t\376?.\220\240\3701&\025@y\351&1\010,\007@(\017\013\265\246y\376?9\326\305m4\300\021@n4\200\267@B\033@\3274\3578E\307\016@\026\373\313\356\311C\006@P\374\030s\327\022\362?\231*\030\225\324\t\000@\313\020\307\272\270\r\003@P\374\030s\327\022\006@\274\005\022\024?\306\374?\331\316\367S\343\245\001@5^\272I\014\202\000@\035\311\345?\244_\013@[\261\277\354\236\274\010@\360\205\311T\301\250\374?\254\034Zd;_\r@\277}\0358gD\002@\024?\306\334\265\204\365?\177\373:p\316\210\377?9\326\305m4\000\013@\235\021\245\275\301\027\002@\325\th\"lx\377?\366(\\\217\302u\026@Gr\371\017\351\267\371?mV}\256\266\342\000@\246\233\304 \260\362\000@c\356ZB>h\003@D\372\355\353\300\271\t@gDio\360\005\013@\356|?5^\272\365?q\033\r\340-\220\364?\337\340\013\223\251\002\022@^\272I\014\002+\002@\201\004\305\2171w\371?$\271\374\207\364\333\375?\351\267\257\003\347\014\000@+\366\227\335\223\207\370?\242\2647\370\302d\013@u\223\030\004VN\037@\303\323+e\031b\016@\226\262\014q\254k%@B>\350\331\254\372\005@\345\362\037\322o_\367?\245N@\023aC\004@\251\244N@\023\341\000@\023\362A\317f\325\031@\212\037c\356Z\302\003@0\273\'\017\013\265\007@\355\236<,\324\232\005@R\270\036\205\353Q\r@\014\223\251\202QI\371?;\001M\204\rO\016@\277\016\2343\242\264\362?\301\250\244N@\023\375?6\315;N\321\321\037@\372~j\274t\223\000@\'\240\211\260\341\251\025@\317\367S\343\245\233\366?\254\034Zd;_\016@\256\330_vO\336\023@q\033\r\340-\220\017@\023\362A\317f\325\031@\327\022\362A\317f\024@\245N@\023a\303\371?\254\034Zd;_\r@\326\305m4\200w\024@B>\350\331\254:\035@O\257\224e\210c\006@+\030\225\324\t\350\n@\t\212\037c\356Z\375?\314\356\311\303B-\n@0\273\'\017\013\265\365?\n\327\243p=\212\n@\033\r\340-\220\240\376?R\270\036\205\353Q\365?\"lxz\245,\000@\310\230\273\226\220\017\365?\334\327\201sF\224\001@\241g\263\352s\265\021@0*\251\023\320D\035@\232\010\033\236^)\375?\221~\373:p\316\377?_\007\316\031Q\232\025@R\'\240\211\260\341\376?e\252`TR\247\n@e\031\342X\0277\r@7\211A`\345\320\374?q\033\r\340-\220\017@\340\276\016\2343\342\026@\277\016\2343\242\264\000@\262\235\357\247\306K\001@\317f\325\347j+\370?0*\251\023\320\304\004@\n\327\243p=\212\027@\373\313\356\311\303\002\026@\300\354\236<,\324\372?_\007\316\031Q\232\025@\'\240\211\260\341\251\025@p\316\210\322\336\340\030@\254\255\330_vO\020@\367u\340\234\021\245\004@\216\006\360\026H\320\021@0*\251\023\320D\035@\233\346\035\247\350H\013@R\270\036\205\353Q\374?\243\001\274\005\022T\030@\327\243p=\nW\017@\277\016\2343\242\264\366?\030\225\324\th\342\022@\374\251\361\322Mb\010@O@\023a\303S\r@=\233U\237\253\355\026@\n\327\243p=\212\n@g\325\347j+\366\013@Gr\371\017\3517\t@\\\217\302\365(\\\372?\300\354\236<,\324\000@\007\360\026HP\374\003@\312T\301\250\244N\370?\000\000\000\000\000\000\375?\315;N\321\221\334\031@!\260rh\221\355\005@\326\305m4\200\367\025@t$\227\377\220~\027@\253>W[\261?\023@\325\347j+\366\227\t@HP\374\030s\327\374?U0*\251\023\220\032@x\351&1\010\254\006@#\333\371~j\034 @\033\236^)\313p\"@\275R\226!\216\225!@\024\256G\341z\024\031@\227n\022\203\300\312\r@n4\200\267@B\033@\002+\207\026\331N\002@\360\026HP\374\330\021@\333\371~j\274\364\020@\2201w-!\237\003@b\241\3264\3578\006@\300\354\236<,\324\003@\313\020\307\272\270\215\376?\253>W[\261?\030@\377\262{\362\260\320\017@\304\261.n\243\001\370?\243\001\274\005\022\024\016@F\266\363\375\324x\024@p\316\210\322\336\340\030@*:\222\313\177\310\004@\331_vO\036\026\374?\326\305m4\200w\024@\341\013\223\251\202\321\021@n\022\203\300\312\241\006@/\335$\006\201\225\001@g\325\347j+v\t@\"\375\366u\340\234\374?|\362\260Pk\232\001@\2505\315;N\321\366?\373\\m\305\376\262\372?g\325\347j+\366\013@\204\rO\257\224\345\000@:#J{\203/\371?\031s\327\022\362\301\026@q\033\r\340-\220\017@\225e\210c]\\\004@\355|?5^\272\022@\216uq\033\r\340\005@\246\233\304 \260r\367??\306\334\265\204|\003@\374\030s\327\022\022!@\365\333\327\201sF\367?\201&\302\206\247W\001@\221~\373:p\316\375?d;\337O\215\227\020@\356|?5^\272\033@;\337O\215\227n\371?\000o\201\004\305\017\002@_\007\316\031Q\232\025@\256\330_vO\036\001@\253>W[\261?\030@\314\356\311\303B-\n@\373:p\316\210R\004@\256\330_vO\336\023@\024\256G\341z\324\022@\224\366\006_\230\014\020@\313\241E\266\363=\026@\223\251\202QI\035\007@\305\376\262{\362\360\027@\313\020\307\272\270\r\003@\376e\367\344a\241\000@b\241\3264\3578\006@$(~\214\271k\371?T\343\245\233\304@(@\336\223\207\205ZS\000@\036\026jM\363\016\t@\246\nF%u\302\030@=\233U\237\253-\"@\221\017z6\253>\373?0L\246\nF%\365?\374\251\361\322Mb\004@\276\301\027&S\005\000@\254\034Zd;_\016@7\032\300[ A\374?q=\n\327\243p\370?yX\2505\315;\006@X\2505\315;\316\000@33333\263\020@\000\221~\373:p\003@#\333\371~j\034 @u\002\232\010\033\036\023@\340-\220\240\370\261\000@t$\227\377\220\376\021@\243\222:\001MD\022@\243\222:\001M\004\017@\235\357\247\306K\267\021@\302\027&S\005c\031@\234\242#\271\374\207\372?\306K7\211A`\003@\235\357\247\306K\267\021@\261Pk\232w\234\373?8gDiop\014@.\220\240\3701&\025@(\017\013\265\246y\367?\327\022\362A\317\346\034@HP\374\030s\327\027@\271\215\006\360\026\310\005@\351H.\377!\375\017@g\325\347j+\366\013@\210\205Z\323\274\343\375?\271\215\006\360\026\010\021@\361c\314]K\310\373?\224\207\205Z\323<\n@{\024\256G\341z\027@F\266\363\375\324\370\006@.\220\240\3701&\025@R\270\036\205\353\321\010@\347\214(\355\r\276\375?Y\027\267\321\000^\014@\314\177H\277}\235\005@e\031\342X\0277\r@\3122\304\261.n\371?33333\263\014@Y\027\267\321\000^\000@\032\300[ Aq\002@Zd;\337O\315\027@\253>W[\261?\023@\277}\0358gD\010@\360\026HP\374\330\024@\202\342\307\230\273\226\002@\263\352s\265\025\373\r@\016\2760\231*X\031@\351&1\010\254\034\375?w\276\237\032/]\002@1\010\254\034Z$\034@#J{\203/L\016@\327\022\362A\317&\034@\010=\233U\237+\005@n4\200\267@B\033@\330\201sF\224v\003@\344\203\236\315\252\217\020@_\007\316\031Q\232\025@<\337O\215\227\356\020@D\213l\347\373\251\366?\025\035\311\345?$\007@Dio\360\205\311\362?H\341z\024\256G\031@\321\221\\\376C\372\000@O@\023a\303\323\002@\317f\325\347jk\021@\236\357\247\306Kw\021@n4\200\267@B\033@\275R\226!\216\225!@H\277}\0358\347\007@\206\311T\301\250d!@\020z6\253>\327\005@F\266\363\375\324x\024@\246\nF%u\302\030@xz\245,C\034\377?\212\260\341\351\225\262\372?\345\362\037\322o_\003@U0*\251\023\220\032@\276\301\027&S\205\000@\317f\325\347jk\021@\017\2343\242\264\267\005@\323Mb\020X9\372?d\314]K\310\007\367?\221~\373:p\016\024@d;\337O\215\227\020@c\356ZB>h\003@\240\032/\335$F\033@\232\231\231\231\231\031\002@\n\327\243p=\n\004@\031\004V\016-r\032@J{\203/L\246 @\"lxz\245\354\024@\232\010\033\236^)\022@I\235\200&\302\206\002@\005\305\2171w-\366?\r\340-\220\240\370\371?\267b\177\331=y\370?O\257\224e\210c\006@\344\203\236\315\252O\037@\325\347j+\366\227\026@\253>W[\261?\023@\270@\202\342\307\230\375?\353\3426\032\300\333\024@\354Q\270\036\205\353\014@\344\203\236\315\252\317\371?\216\006\360\026HP\376?\030\225\324\th\"\372?\363\037\322o_G\035@\327\022\362A\317f\024@\000\221~\373:\320!@\326V\354/\273\'\007@m\347\373\251\361\322\376?}\256\266b\177\331\362?g\325\347j+\366\013@\212\216\344\362\037r\"@\337\340\013\223\251\002\022@\314]K\310\007=\363?O@\023a\303S\r@\206\311T\301\250d\020@\320\263Y\365\271\232\025@\241g\263\352s5\020@\263{\362\260P\353\031@e\031\342X\0277\r@\177\373:p\316\210\365?1\010\254\034Z$\034@\316\210\322\336\340+%@]\376C\372\355k\000@\217\302\365(\\\217\017@\346\256%\344\203\236\002@\326\305m4\200w\024@\236^)\313\020\307\001@\254\213\333h\000\357\017@\221~\373:p\316\366?(~\214\271k\211\004@,\324\232\346\035g\020@\314]K\310\007\275\010@\030\225\324\th\342\022@6\315;N\321\321\037@\202sF\224\366\006 @\273\270\215\006\360\226\006@u\223\030\004VN\037@R\270\036\205\353\321\003@#\333\371~j<\035@HP\374\030s\327\002@\017\2343\242\264\267\005@\314\177H\277}\035\374?(~\214\271k\t\374?\243\222:\001MD\022@\216uq\033\r`\"@0*\251\023\320D\035@\210\364\333\327\201s\023@\'\240\211\260\341\251\025@\343\245\233\304 \260\001@\027\331\316\367S\343\371?\\\217\302\365(\\\020@=\233U\237\253\255\377?\032Q\332\033|a\020@\016\2760\231*X\031@\344\203\236\315\252O\037@\341\013\223\251\202\321\014@[\323\274\343\024\235\036@\312\241E\266\363\375\031@[\323\274\343\024\235\036@0\273\'\017\013\265\016@\325x\351&1\010\367?\006\022\024?\306\334\370?\200H\277}\0358\377?\250\306K7\211\001\021@\363\037\322o_\307\022@\016\2760\231*X\031@\370S\343\245\233\304\002@\376\324x\351&1\362?\202\342\307\230\273\226\366?\212\037c\356ZB\037@KY\2068\326E\003@\204\rO\257\224\345\010@\354Q\270\036\205\353\017@\2343\242\2647\370\376?\340\276\016\2343\342\026@"
      }
    }
  }
}
node {
  name: "normalize_element/component_3"
  op: "Const"
  device: "/device:CPU:0"
  attr {
    key: "_output_shapes"
    value {
      list {
        shape {
          dim {
            size: 400
          }
        }
      }
    }
  }
  attr {
    key: "dtype"
    value {
      type: DT_DOUBLE
    }
  }
  attr {
    key: "value"
    value {
      tensor {
        dtype: DT_DOUBLE
        tensor_shape {
          dim {
            size: 400
          }
        }
        tensor_content: "\024\256G\341z\2243@\232\231\231\231\231\0312@\244p=\n\327\243\033@\037\205\353Q\270\236%@R\270\036\205\353Q\370?\244p=\n\327\243\n@\n\327\243p=\n\373?\\\217\302\365(\\\030@\232\231\231\231\231\0312@=\n\327\243p\275;@\232\231\231\231\231\0312@q=\n\327\243p\001@\232\231\231\231\231\0312@\303\365(\\\217\302\017@\024\256G\341z\2243@\024\256G\341z\2243@\037\205\353Q\270\236%@\232\231\231\231\231\0312@\232\231\231\231\231\0312@\366(\\\217\302\365\021@\217\302\365(\\\217\026@\327\243p=\n\327\027@\232\231\231\231\231\0312@\232\231\231\231\231\0312@\232\231\231\231\231\0312@\341z\024\256Ga#@\205\353Q\270\036\005$@\024\256G\341z\2243@\232\231\231\231\231\0312@\232\231\231\231\231\0312@H\341z\024\256G\013@H\341z\024\256G\013@\232\231\231\231\231\0312@\315\314\314\314\314\314\030@\024\256G\341z\2243@\232\231\231\231\231\0312@\024\256G\341z\2243@\315\314\314\314\314\314\030@\232\231\231\231\231\0312@\244p=\n\327\3435@\303\365(\\\217\302\024@\232\231\231\231\231\0312@\244p=\n\327\3435@\244p=\n\327\3435@\024\256G\341z\2243@\315\314\314\314\314\314\030@\327\243p=\n\327\027@\232\231\231\231\231\0312@\232\231\231\231\231\0312@)\\\217\302\365\250)@\244p=\n\327\3435@\024\256G\341z\2243@\232\231\231\231\231\0312@fffff\2469@\232\231\231\231\231\0312@\232\231\231\231\231\0312@q=\n\327\243p\027@H\341z\024\256G @\n\327\243p=\n\373?\205\353Q\270\036\005$@\024\256G\341z\2243@\232\231\231\231\231\0312@=\n\327\243p\275;@\303\365(\\\217\302\024@\244p=\n\327\3435@\232\231\231\231\231\0312@\256G\341z\024\256\003@\256G\341z\024.%@\232\231\231\231\231\0312@\205\353Q\270\036\205\013@\232\231\231\231\231\0312@\232\231\231\231\231\0312@q=\n\327\243p\027@\232\231\231\231\231\0312@\205\353Q\270\036\205\035@\232\231\231\231\231\0312@H\341z\024\256G @H\341z\024\256G\034@\256G\341z\024.%@\303\365(\\\217\302\024@\244p=\n\327\243\033@\024\256G\341z\2243@\315\314\314\314\314\314\030@\315\314\314\314\314\314\023@\303\365(\\\217\302\007@\341z\024\256Ga#@H\341z\024\256\307+@\232\231\231\231\231\0312@\315\314\314\314\314\314\030@\232\231\231\231\231\0312@333333\020@\232\231\231\231\231\0312@\232\231\231\231\231\0312@\232\231\231\231\231\0312@\232\231\231\231\231\0312@fffff\2469@\366(\\\217\302\365\021@H\341z\024\256G\025@=\n\327\243p\275;@\232\231\231\231\231\0312@q=\n\327\243p\023@\303\365(\\\217\302\017@\232\231\231\231\231\0312@\315\314\314\314\314\314\030@\303\365(\\\217\302\017@\256G\341z\024.%@\244p=\n\327\243\033@\232\231\231\231\231\0312@\024\256G\341z\2243@\232\231\231\231\231\0312@333333\020@\\\217\302\365(\\\363?\327\243p=\n\327+@\232\231\231\231\231\0312@q=\n\327\243p\023@\205\353Q\270\036\205\035@q=\n\327\243p\007@\244p=\n\327\243\031@\232\231\231\231\231\0312@H\341z\024\256G @H\341z\024\256G\025@\232\231\231\231\231\0312@\232\231\231\231\231\0312@{\024\256G\341z\037@\327\243p=\n\327\033@\024\256G\341z\2243@\205\353Q\270\036\205\035@\315\314\314\314\314\314\030@\024\256G\341z\024.@=\n\327\243p=\016@\315\314\314\314\314\314#@\037\205\353Q\270\036\007@\232\231\231\231\231\0312@\232\231\231\231\231\0312@\232\231\231\231\231\0312@\341z\024\256Ga#@\232\231\231\231\231\0312@\244p=\n\327\3435@=\n\327\243p=\016@\256G\341z\024\256\003@\\\217\302\365(\\\030@\354Q\270\036\205\353\t@\303\365(\\\217\302\024@\256G\341z\024\256\003@\232\231\231\231\231\0312@=\n\327\243p=\030@\315\314\314\314\314\314#@q=\n\327\243p\027@\037\205\353Q\270\036\r@\000\000\000\000\000\000\364?=\n\327\243p=\000@\232\231\231\231\231\0312@\217\302\365(\\\217\026@\303\365(\\\217\302\017@H\341z\024\256G @H\341z\024\256G @\232\231\231\231\231\0312@\037\205\353Q\270\036!@\\\217\302\365(\334\'@\232\231\231\231\231\0312@q=\n\327\243p\001@H\341z\024\256G @\232\231\231\231\231\0312@H\341z\024\256G @q=\n\327\243p\005@q=\n\327\243p\007@\256G\341z\024\256\003@=\n\327\243p\275;@\315\314\314\314\314\314\023@H\341z\024\256G @\256G\341z\024\256\003@\232\231\231\231\231\0312@q=\n\327\243p\001@\244p=\n\327\3435@\232\231\231\231\231\0312@\232\231\231\231\231\0312@\244p=\n\327\3435@\037\205\353Q\270\036\007@\303\365(\\\217\302\017@\232\231\231\231\231\0312@\244p=\n\327\243\033@\256G\341z\024.%@\037\205\353Q\270\036!@H\341z\024\256G @\232\231\231\231\231\0312@\232\231\231\231\231\0312@\232\231\231\231\231\0312@\232\231\231\231\231\231\020@\232\231\231\231\231\0312@\232\231\231\231\231\0312@\232\231\231\231\231\0312@\315\314\314\314\314\314\030@\205\353Q\270\036\205\024@\232\231\231\231\231\0312@fffff\2469@q=\n\327\243p\023@\303\365(\\\217\302\017@q=\n\327\243p\001@\315\314\314\314\314\314\030@\232\231\231\231\231\0312@H\341z\024\256G\034@H\341z\024\256G @H\341z\024\256G @{\024\256G\341z\037@H\341z\024\256\307+@\303\365(\\\217\302\024@\341z\024\256Ga#@\303\365(\\\217\302\017@\037\205\353Q\270\036!@\232\231\231\231\231\0312@)\\\217\302\365(\000@\024\256G\341z\2243@333333\020@\270\036\205\353Q\270\023@)\\\217\302\365(\374?\232\231\231\231\231\0312@\024\256G\341z\2243@\205\353Q\270\036\005$@\232\231\231\231\231\0312@H\341z\024\256G @\024\256G\341z\2243@\232\231\231\231\231\0312@\232\231\231\231\231\0312@\232\231\231\231\231\0312@H\341z\024\256G @\232\231\231\231\231\0312@q=\n\327\243p\027@\366(\\\217\302\365\021@fffff\2469@H\341z\024\256G @\205\353Q\270\036\205\013@\256G\341z\024.%@\327\243p=\n\327\033@{\024\256G\341z\037@\232\231\231\231\231\0312@\024\256G\341z\2243@\327\243p=\n\327\033@\232\231\231\231\231\0312@333333\020@\037\205\353Q\270\236%@\232\231\231\231\231\0312@\205\353Q\270\036\205\024@\327\243p=\n\327+@\232\231\231\231\231\0312@\315\314\314\314\314\314#@\037\205\353Q\270\036\007@=\n\327\243p\275;@H\341z\024\256G @\024\256G\341z\2243@\256G\341z\024\256\003@\244p=\n\327\243\033@\232\231\231\231\231\0312@\037\205\353Q\270\236%@\315\314\314\314\314\314#@\232\231\231\231\231\0312@\232\231\231\231\231\0312@333333\020@\315\314\314\314\314\314\030@\232\231\231\231\231\0312@\256G\341z\024.%@\024\256G\341z\2243@\232\231\231\231\231\0312@{\024\256G\341z\037@\303\365(\\\217\302\024@\232\231\231\231\231\0312@\244p=\n\327\243\n@\232\231\231\231\231\0312@\366(\\\217\302\365\021@\270\036\205\353Q\270\023@\232\231\231\231\231\0312@\232\231\231\231\231\0312@\270\036\205\353Q\270\023@H\341z\024\256G @R\270\036\205\353Q\370?333333\020@\217\302\365(\\\217\026@\037\205\353Q\270\036!@\244p=\n\327\243\031@q=\n\327\243p\023@H\341z\024\256G @\232\231\231\231\231\0312@\341z\024\256Ga#@\232\231\231\231\231\0312@\327\243p=\n\327+@\232\231\231\231\231\0312@\205\353Q\270\036\005$@\256G\341z\024.%@\327\243p=\n\327\033@\217\302\365(\\\217\026@\000\000\000\000\000\000\364?\256G\341z\024\256\003@\205\353Q\270\036\205\363?\205\353Q\270\036\005$@q=\n\327\243p\005@\270\036\205\353Q\270\023@fffff\2469@\244p=\n\327\3435@\303\365(\\\217\302\017@=\n\327\243p=\030@\232\231\231\231\231\0312@\256G\341z\024.%@\037\205\353Q\270\036!@\232\231\231\231\231\0312@\244p=\n\327\3435@)\\\217\302\365\250)@\315\314\314\314\314\314\030@\024\256G\341z\2243@\205\353Q\270\036\205\024@\024\256G\341z\2243@\\\217\302\365(\334\'@\366(\\\217\302\365\n@\037\205\353Q\270\036\365?\303\365(\\\217\302\024@\205\353Q\270\036\205\035@\232\231\231\231\231\0312@\232\231\231\231\231\0312@\024\256G\341z\2243@\024\256G\341z\2243@\341z\024\256Ga#@\354Q\270\036\205\353\001@q=\n\327\243p\335?\303\365(\\\217\302\024@\244p=\n\327\3435@\354Q\270\036\205\353\t@\024\256G\341z\024.@\232\231\231\231\231\0312@\303\365(\\\217\302\017@\232\231\231\231\231\0312@\000\000\000\000\000\000\020@\244p=\n\327\243\033@q=\n\327\243p\027@\315\314\314\314\314\314\030@\232\231\231\231\231\0312@\232\231\231\231\231\0312@\037\205\353Q\270\036\007@\024\256G\341z\024\366?)\\\217\302\365\250)@\232\231\231\231\231\0312@\024\256G\341z\024.@\232\231\231\231\231\0312@\232\231\231\231\231\231\007@)\\\217\302\365\250)@\205\353Q\270\036\205\013@\315\314\314\314\314\314\030@\024\256G\341z\2243@\270\036\205\353Q\270\023@\217\302\365(\\\217\376?\232\231\231\231\231\0312@\315\314\314\314\314\314#@\244p=\n\327\3435@\315\314\314\314\314\314\023@\232\231\231\231\231\0312@\232\231\231\231\231\0312@\232\231\231\231\231\0312@\232\231\231\231\231\0312@\244p=\n\327\243\n@H\341z\024\256G\013@\205\353Q\270\036\205\035@q=\n\327\243p\027@\217\302\365(\\\217\021@\232\231\231\231\231\0312@q=\n\327\243p\027@\205\353Q\270\036\005$@R\270\036\205\353Q\370?\232\231\231\231\231\0312@\037\205\353Q\270\036!@fffff\2469@\232\231\231\231\231\0312@\205\353Q\270\036\205\013@\256G\341z\024\256\347?H\341z\024\256G\025@\244p=\n\327\243\031@\205\353Q\270\036\205\035@\037\205\353Q\270\036!@\024\256G\341z\2243@{\024\256G\341z\002@\244p=\n\327\3435@H\341z\024\256G @\000\000\000\000\000\000\016@\354Q\270\036\205\353\001@\315\314\314\314\314\314#@\205\353Q\270\036\205\367?H\341z\024\256G\030@\205\353Q\270\036\205\367?\315\314\314\314\314\314\030@\232\231\231\231\231\0312@\232\231\231\231\231\0312@\232\231\231\231\231\0312@)\\\217\302\365\250)@\244p=\n\327\243\n@\270\036\205\353Q\270\023@\244p=\n\327\3435@\232\231\231\231\231\0312@\024\256G\341z\2243@\205\353Q\270\036\205\024@\341z\024\256Ga#@H\341z\024\256\307+@H\341z\024\256G @\232\231\231\231\231\0312@\244p=\n\327\243\033@"
      }
    }
  }
}
node {
  name: "normalize_element/component_4"
  op: "Const"
  device: "/device:CPU:0"
  attr {
    key: "_output_shapes"
    value {
      list {
        shape {
          dim {
            size: 400
          }
        }
      }
    }
  }
  attr {
    key: "dtype"
    value {
      type: DT_DOUBLE
    }
  }
  attr {
    key: "value"
    value {
      tensor {
        dtype: DT_DOUBLE
        tensor_shape {
          dim {
            size: 400
          }
        }
        tensor_content: "\\\217\302\365(\\\343?\223\030\004V\016-\346?x\351&1\010\254\334?;\337O\215\227n\332?A`\345\320\"\333\331?c\177\331=yX\334?\350\373\251\361\322M\332?\203\300\312\241E\266\333?7\211A`\345\320\346?\260rh\221\355|\343?\223\030\004V\016-\346?i\221\355|?5\336?\244p=\n\327\243\350?Nb\020X9\264\344?\254\034Zd;\337\353?\\\217\302\365(\\\343?;\337O\215\227n\332?\217\302\365(\\\217\342?`\345\320\"\333\371\346?#\333\371~j\274\334?\177j\274t\223\030\334?V\016-\262\235\357\337?7\211A`\345\320\346?\306K7\211A`\345?\256G\341z\024\256\347?\270\036\205\353Q\270\342?\033/\335$\006\201\341?\\\217\302\365(\\\343?\343\245\233\304 \260\342?\343\245\233\304 \260\342?\262\235\357\247\306K\337?\262\235\357\247\306K\337?\223\030\004V\016-\346?T\343\245\233\304 \340?\\\217\302\365(\\\343?E\266\363\375\324x\345?\\\217\302\365(\\\343?T\343\245\233\304 \340?7\211A`\345\320\346?+\207\026\331\316\367\343?{\024\256G\341z\340?\223\030\004V\016-\346?+\207\026\331\316\367\343?+\207\026\331\316\367\343?\\\217\302\365(\\\343?T\343\245\233\304 \340?V\016-\262\235\357\337?E\266\363\375\324x\345?J\014\002+\207\026\345?,\207\026\331\316\367\333?+\207\026\331\316\367\343?\254\034Zd;\337\353?\256G\341z\024\256\347?d;\337O\215\227\342?ffffff\346?\240\032/\335$\006\341?/\335$\006\201\225\333?\235\357\247\306K7\341?\350\373\251\361\322M\332?\033/\335$\006\201\341?\254\034Zd;\337\353?\331\316\367S\343\245\343?\260rh\221\355|\343?{\024\256G\341z\340?+\207\026\331\316\367\343?\366(\\\217\302\365\344?\010\254\034Zd;\337?\262\235\357\247\306K\337?ffffff\346?,\207\026\331\316\367\333?\376\324x\351&1\344?\256G\341z\024\256\347?/\335$\006\201\225\333?\256G\341z\024\256\347?Zd;\337O\215\337?\264\310v\276\237\032\343?\235\357\247\306K7\341?j\274t\223\030\004\336?\262\235\357\247\306K\337?{\024\256G\341z\340?x\351&1\010\254\334?\254\034Zd;\337\353?T\343\245\233\304 \340?\350\373\251\361\322M\332?\232\231\231\231\231\231\331?\270\036\205\353Q\270\342?\232\231\231\231\231\231\341?\356|?5^\272\345?\323Mb\020X9\340?\376\324x\351&1\344?R\270\036\205\353Q\340?\256G\341z\024\256\347?\376\324x\351&1\344?\331\316\367S\343\245\343?E\266\363\375\324x\345?d;\337O\215\227\342?#\333\371~j\274\334?\354Q\270\036\205\353\331?\260rh\221\355|\343?\256G\341z\024\256\347?\335$\006\201\225C\333?Nb\020X9\264\344?\240\032/\335$\006\341?\323Mb\020X9\340?Nb\020X9\264\344?\262\235\357\247\306K\337?x\351&1\010\254\334?\343\245\233\304 \260\342?\\\217\302\365(\\\343?\376\324x\351&1\344?R\270\036\205\353Q\340?D\213l\347\373\251\331?,\207\026\331\316\367\333?\223\030\004V\016-\346?\335$\006\201\225C\333?Zd;\337O\215\337?D\213l\347\373\251\331?\317\367S\343\245\233\334?7\211A`\345\320\346?\235\357\247\306K7\341?\354Q\270\036\205\353\331?\240\032/\335$\006\341?ffffff\346?\370S\343\245\233\304\340?\030\004V\016-\262\335?\254\034Zd;\337\353?Zd;\337O\215\337?\323Mb\020X9\340?\030\004V\016-\262\335?`\345\320\"\333\371\336?\234\304 \260rh\341?{\024\256G\341z\334?\016-\262\235\357\247\342?\356|?5^\272\345?\244p=\n\327\243\350?\270\036\205\353Q\270\342?E\266\363\375\324x\345?+\207\026\331\316\367\343?`\345\320\"\333\371\336?\010\254\034Zd;\337?\203\300\312\241E\266\333?q=\n\327\243p\335?{\024\256G\341z\340?\010\254\034Zd;\337?\356|?5^\272\345?\021\307\272\270\215\006\334?\234\304 \260rh\341?/\335$\006\201\225\333?J\014\002+\207\026\331?\333\371~j\274t\333?\217\302\365(\\\217\332?\016-\262\235\357\247\342?\177j\274t\223\030\334?Nb\020X9\264\344?\235\357\247\306K7\341?\235\357\247\306K7\341?7\211A`\345\320\346?\244p=\n\327\243\340?\274t\223\030\004V\342?\356|?5^\272\345?\034Zd;\337O\335?\235\357\247\306K7\341?\223\030\004V\016-\346?\235\357\247\306K7\341?\376e\367\344a\241\332?D\213l\347\373\251\331?\010\254\034Zd;\337?\260rh\221\355|\343?\350\373\251\361\322M\332?\235\357\247\306K7\341?\010\254\034Zd;\337?\256G\341z\024\256\347?i\221\355|?5\336?+\207\026\331\316\367\343?\343\245\233\304 \260\342?ffffff\346?+\207\026\331\316\367\343?{\024\256G\341z\334?Nb\020X9\264\344?\223\030\004V\016-\346?x\351&1\010\254\334?\262\235\357\247\306K\337?\244p=\n\327\243\340?\235\357\247\306K7\341?7\211A`\345\320\346?\264\310v\276\237\032\343?7\211A`\345\320\346?\333\371~j\274t\333?\264\310v\276\237\032\343?ffffff\346?\356|?5^\272\345?\323Mb\020X9\340?\312\241E\266\363\375\334?ffffff\346?d;\337O\215\227\342?\335$\006\201\225C\333?Nb\020X9\264\344?\034Zd;\337O\335?\323Mb\020X9\340?\343\245\233\304 \260\342?j\274t\223\030\004\336?\235\357\247\306K7\341?\235\357\247\306K7\341?\370S\343\245\233\304\340?\232\231\231\231\231\231\341?{\024\256G\341z\340?\270\036\205\353Q\270\342?Nb\020X9\264\344?\244p=\n\327\243\340?\223\030\004V\016-\346?=\n\327\243p=\332?\\\217\302\365(\\\343?R\270\036\205\353Q\340?1\010\254\034Zd\333?\244p=\n\327\243\330?\223\030\004V\016-\346?\254\034Zd;\337\353?\033/\335$\006\201\341?\256G\341z\024\256\347?\235\357\247\306K7\341?\254\034Zd;\337\353?\264\310v\276\237\032\343?7\211A`\345\320\346?\331\316\367S\343\245\343?\235\357\247\306K7\341?\343\245\233\304 \260\342?/\335$\006\201\225\333?#\333\371~j\274\334?d;\337O\215\227\342?\235\357\247\306K7\341?,\207\026\331\316\367\333?\262\235\357\247\306K\337?\030\004V\016-\262\335?\370S\343\245\233\304\340?\223\030\004V\016-\346?\\\217\302\365(\\\343?\030\004V\016-\262\335?\223\030\004V\016-\346?R\270\036\205\353Q\340?;\337O\215\227n\332?ffffff\346?\312\241E\266\363\375\334?,\207\026\331\316\367\333?\244p=\n\327\243\350?\234\304 \260rh\341?{\024\256G\341z\334?\260rh\221\355|\343?\235\357\247\306K7\341?\254\034Zd;\337\353?\010\254\034Zd;\337?x\351&1\010\254\334?\366(\\\217\302\365\344?;\337O\215\227n\332?\234\304 \260rh\341?`\345\320\"\333\371\346?\016-\262\235\357\247\342?R\270\036\205\353Q\340?\323Mb\020X9\340?\264\310v\276\237\032\343?\262\235\357\247\306K\337?\\\217\302\365(\\\343?\331\316\367S\343\245\343?\370S\343\245\233\304\340?{\024\256G\341z\340?\217\302\365(\\\217\342?c\177\331=yX\334?7\211A`\345\320\346?#\333\371~j\274\334?1\010\254\034Zd\333?\356|?5^\272\345?\244p=\n\327\243\350?1\010\254\034Zd\333?\235\357\247\306K7\341?}?5^\272I\334?R\270\036\205\353Q\340?\177j\274t\223\030\334?\244p=\n\327\243\340?\317\367S\343\245\233\334?\335$\006\201\225C\333?\235\357\247\306K7\341?E\266\363\375\324x\345?\270\036\205\353Q\270\342?\306K7\211A`\345?,\207\026\331\316\367\333?\244p=\n\327\243\350?\033/\335$\006\201\341?\262\235\357\247\306K\337?\030\004V\016-\262\335?\177j\274t\223\030\334?\333\371~j\274t\333?\010\254\034Zd;\337?\227n\022\203\300\312\331?\033/\335$\006\201\341?\376e\367\344a\241\332?1\010\254\034Zd\333?d;\337O\215\227\342?+\207\026\331\316\367\343?ffffff\342?\021\307\272\270\215\006\334?\256G\341z\024\256\347?\262\235\357\247\306K\337?\244p=\n\327\243\340?\223\030\004V\016-\346?+\207\026\331\316\367\343?,\207\026\331\316\367\333?\323Mb\020X9\340?\\\217\302\365(\\\343?\312\241E\266\363\375\334?\\\217\302\365(\\\343?\274t\223\030\004V\342?E\266\363\375\324x\331?\350\373\251\361\322M\332?{\024\256G\341z\340?Zd;\337O\215\337?7\211A`\345\320\346?E\266\363\375\324x\345?\254\034Zd;\337\353?\254\034Zd;\337\353?\270\036\205\353Q\270\342?\232\231\231\231\231\231\331?6^\272I\014\002\333?{\024\256G\341z\340?+\207\026\331\316\367\343?q=\n\327\243p\335?\030\004V\016-\262\335?`\345\320\"\333\371\346?Nb\020X9\264\344?\223\030\004V\016-\346?=\n\327\243p=\332?x\351&1\010\254\334?/\335$\006\201\225\333?T\343\245\233\304 \340?ffffff\346?J\014\002+\207\026\345?{\024\256G\341z\334?\376e\367\344a\241\332?,\207\026\331\316\367\333?\376\324x\351&1\344?\030\004V\016-\262\335?\240\032/\335$\006\341?1\010\254\034Zd\333?,\207\026\331\316\367\333?,\207\026\331\316\367\333?\323Mb\020X9\340?\254\034Zd;\337\353?1\010\254\034Zd\333?;\337O\215\227n\332?\343\245\233\304 \260\342?\234\304 \260rh\341?+\207\026\331\316\367\343?\350\373\251\361\322M\332?7\211A`\345\320\346?\016-\262\235\357\247\342?\223\030\004V\016-\346?7\211A`\345\320\346?c\177\331=yX\334?\262\235\357\247\306K\337?Zd;\337O\215\337?/\335$\006\201\225\333?}?5^\272I\334?\217\302\365(\\\217\342?/\335$\006\201\225\333?\033/\335$\006\201\341?A`\345\320\"\333\331?7\211A`\345\320\346?\244p=\n\327\243\340?d;\337O\215\227\342?`\345\320\"\333\371\346?,\207\026\331\316\367\333?=\n\327\243p=\332?\354Q\270\036\205\353\331?\317\367S\343\245\233\334?Zd;\337O\215\337?\244p=\n\327\243\340?\254\034Zd;\337\353?\235\357\247\306K7\341?+\207\026\331\316\367\343?\235\357\247\306K7\341?\235\357\247\306K7\331?\232\231\231\231\231\231\331?\234\304 \260rh\341?\227n\022\203\300\312\331?\223\030\004V\016-\332?\227n\022\203\300\312\331?\323Mb\020X9\340?ffffff\346?\264\310v\276\237\032\343?\331\316\367S\343\245\343?,\207\026\331\316\367\333?c\177\331=yX\334?1\010\254\034Zd\333?+\207\026\331\316\367\343?\306K7\211A`\345?\254\034Zd;\337\353?\312\241E\266\363\375\334?\270\036\205\353Q\270\342?\232\231\231\231\231\231\341?\235\357\247\306K7\341?\356|?5^\272\345?x\351&1\010\254\334?"
      }
    }
  }
}
node {
  name: "normalize_element/component_5"
  op: "Const"
  device: "/device:CPU:0"
  attr {
    key: "_output_shapes"
    value {
      list {
        shape {
          dim {
            size: 400
          }
        }
      }
    }
  }
  attr {
    key: "dtype"
    value {
      type: DT_DOUBLE
    }
  }
  attr {
    key: "value"
    value {
      tensor {
        dtype: DT_DOUBLE
        tensor_shape {
          dim {
            size: 400
          }
        }
        tensor_content: "ffffff-@3333334@fffff\3461@3333333@333333)@\315\314\314\314\314\314-@\315\314\314\314\314L2@\232\231\231\231\231\0310@3333334@\232\231\231\231\231\0314@3333334@ffffff2@3333334@\000\000\000\000\000\000*@ffffff-@ffffff-@3333333@3333334@3333334@\000\000\000\000\000\2002@\315\314\314\314\314\3140@3333333@3333334@3333334@3333334@3333333@\315\314\314\314\314\3141@ffffff-@3333334@3333334@\315\314\314\314\314\3141@\315\314\314\314\314\3141@3333334@ffffff1@ffffff-@3333334@ffffff-@ffffff1@3333334@3333335@3333334@3333334@3333335@3333335@ffffff-@ffffff1@3333333@3333334@3333334@33333\2632@3333335@ffffff-@3333334@\232\231\231\231\231\0313@3333334@3333334@\232\231\231\231\231\0313@\000\000\000\000\000\0005@\315\314\314\314\314L2@\315\314\314\314\314\3141@ffffff-@3333334@\232\231\231\231\231\0314@3333334@3333335@3333334@\315\314\314\314\314\3141@\232\231\231\231\231\2312@3333334@ffffff.@3333334@3333334@\232\231\231\231\231\0313@3333334@\232\231\231\231\231\2313@3333334@\000\000\000\000\000\0005@\315\314\314\314\314\3141@\232\231\231\231\231\2312@3333334@fffff\3461@ffffff-@ffffff1@3333333@\232\231\231\231\231\231.@3333333@ffffff0@3333334@ffffff1@3333334@\232\231\231\231\231\2310@3333334@3333334@3333334@3333334@\232\231\231\231\231\0313@\000\000\000\000\000\2002@\232\231\231\231\231\2310@\232\231\231\231\231\0314@3333334@\000\000\000\000\000\0003@\000\000\000\000\000\000*@3333334@ffffff1@\000\000\000\000\000\000*@\232\231\231\231\231\2312@fffff\3461@3333334@ffffff-@3333334@\232\231\231\231\231\2310@333333+@\000\000\000\000\000\0000@3333334@\000\000\000\000\000\0003@\232\231\231\231\231\2313@333333/@\232\231\231\231\231\2311@3333334@\000\000\000\000\000\0005@\232\231\231\231\231\2310@3333334@3333334@ffffff.@\232\231\231\231\231\2312@ffffff-@\232\231\231\231\231\2313@ffffff1@3333332@\232\231\231\231\231\2311@ffffff2@\000\000\000\000\000\0002@3333334@3333334@3333334@3333333@3333334@3333335@\232\231\231\231\231\2311@\315\314\314\314\314\3141@\232\231\231\231\231\0310@fffff\3460@3333334@\315\314\314\314\314\3141@3333334@fffff\3460@ffffff2@\232\231\231\231\231\0313@ffffff0@33333\2633@ffffff-@3333334@\315\314\314\314\314\3140@\000\000\000\000\000\000*@\000\000\000\000\000\0005@\000\000\000\000\000\0005@3333334@fffff\3464@\000\000\000\000\000\0005@3333334@33333\2632@\000\000\000\000\000\0005@3333334@\000\000\000\000\000\0005@ffffff-@333333/@\315\314\314\314\314\3141@\232\231\231\231\231\0314@3333333@\000\000\000\000\000\0005@\315\314\314\314\314\3141@3333334@ffffff2@3333335@3333334@3333334@3333335@\000\000\000\000\000\0002@\000\000\000\000\000\000*@3333334@fffff\3461@\232\231\231\231\231\2312@fffff\3464@\000\000\000\000\000\0005@3333334@3333334@3333334@fffff\3461@3333334@3333334@3333334@ffffff1@33333\2633@3333334@\232\231\231\231\231\0313@\000\000\000\000\000\0003@\000\000\000\000\000\000*@33333\2632@ffffff1@3333334@\315\314\314\314\314\3141@\000\000\000\000\000\0005@\000\000\000\000\000\0005@ffffff.@ffffff0@3333334@3333333@\000\000\000\000\000\000*@fffff\3464@3333334@\000\000\000\000\000\0001@ffffff-@\232\231\231\231\231\2310@\232\231\231\231\231\2310@3333332@3333334@ffffff-@\315\314\314\314\314\3141@3333334@\000\000\000\000\000\0005@ffffff-@3333334@3333334@3333334@\000\000\000\000\000\0005@3333334@\232\231\231\231\231\0313@\000\000\000\000\000\2002@\232\231\231\231\231\0313@\000\000\000\000\000\0005@ffffff.@\232\231\231\231\231\2312@\232\231\231\231\231\2312@ffffff.@3333334@ffffff-@\232\231\231\231\231\2312@3333334@\232\231\231\231\231\2310@3333333@3333334@33333\2633@\000\000\000\000\000\0000@3333334@ffffff2@\000\000\000\000\000\0002@\232\231\231\231\231\0314@\000\000\000\000\000\0005@ffffff-@\315\314\314\314\314\3141@fffff\3461@3333334@3333333@ffffff2@3333334@3333334@\232\231\231\231\231\2310@ffffff1@3333334@\232\231\231\231\231\2312@ffffff-@3333334@ffffff.@3333334@3333334@\315\314\314\314\314\314-@3333334@\000\000\000\000\000\2002@\232\231\231\231\231\2310@3333334@3333334@\232\231\231\231\231\2310@\000\000\000\000\000\0005@\000\000\000\000\000\000/@\232\231\231\231\231\2310@\315\314\314\314\314\3140@fffff\3464@\232\231\231\231\231\2311@\000\000\000\000\000\0003@\000\000\000\000\000\0005@3333334@3333333@3333334@\000\000\000\000\000\0000@3333334@\315\314\314\314\314\3141@\232\231\231\231\231\2312@\232\231\231\231\231\2312@\315\314\314\314\314\3140@33333\2633@\315\314\314\314\314\3141@fffff\3461@\315\314\314\314\314\3141@ffffff-@\232\231\231\231\231\2310@\232\231\231\231\231\0313@3333335@\000\000\000\000\000\000*@fffff\3460@3333334@\232\231\231\231\231\2312@fffff\3464@3333334@3333335@33333\2632@ffffff1@ffffff-@33333\2633@ffffff-@\000\000\000\000\000\0005@\232\231\231\231\231\0310@333333.@3333334@\232\231\231\231\231\2313@3333334@3333334@ffffff-@ffffff-@3333333@\232\231\231\231\231\231-@\315\314\314\314\314\314,@3333334@3333335@fffff\3460@3333332@3333334@\000\000\000\000\000\000*@3333334@\232\231\231\231\231\0315@fffff\3461@\232\231\231\231\231\0313@ffffff1@3333334@3333334@\000\000\000\000\000\0002@\232\231\231\231\231\2312@33333\2632@3333334@3333332@3333334@\315\314\314\314\314L2@33333\2632@ffffff.@ffffff1@ffffff-@\232\231\231\231\231\2310@\000\000\000\000\000\0006@3333334@ffffff2@3333335@3333333@3333334@3333334@3333334@3333334@\315\314\314\314\314\314-@\315\314\314\314\314\3141@\232\231\231\231\231\2313@\232\231\231\231\231\0313@\315\314\314\314\314\3142@3333334@\232\231\231\231\231\0313@\315\314\314\314\314\3141@333333)@3333334@fffff\3464@\232\231\231\231\231\0313@3333334@ffffff.@\315\314\314\314\314L1@\232\231\231\231\231\2310@\232\231\231\231\231\2311@\232\231\231\231\231\2313@fffff\3464@ffffff-@\232\231\231\231\231\231.@3333335@\000\000\000\000\000\0005@\315\314\314\314\314\314/@\232\231\231\231\231\231-@ffffff2@\000\000\000\000\000\0001@fffff\3462@\000\000\000\000\000\0001@ffffff1@3333334@3333334@3333334@33333\2632@\315\314\314\314\314\314-@\232\231\231\231\231\2310@3333335@3333334@ffffff-@33333\2633@3333333@ffffff0@\000\000\000\000\000\0005@3333334@fffff\3461@"
      }
    }
  }
}
node {
  name: "normalize_element/component_6"
  op: "Const"
  device: "/device:CPU:0"
  attr {
    key: "_output_shapes"
    value {
      list {
        shape {
          dim {
            size: 400
          }
        }
      }
    }
  }
  attr {
    key: "dtype"
    value {
      type: DT_DOUBLE
    }
  }
  attr {
    key: "value"
    value {
      tensor {
        dtype: DT_DOUBLE
        tensor_shape {
          dim {
            size: 400
          }
        }
        tensor_content: "-\262\235\357\247F\031@@5^\272I\214\027@\024\256G\341z\024\033@\362\322Mb\020\330\027@\177j\274t\223\030\035@\254\034Zd;\337\033@\357\247\306K7\211\027@!\260rh\221\355\033@\350\373\251\361\322\315\032@7\211A`\345\320\025@\034Zd;\337\317\025@\021X9\264\310v\032@d;\337O\215\227\031@t\223\030\004V\016\034@\317\367S\343\245\233\030@\022\203\300\312\241\305\033@_\272I\014\002\253\031@sh\221\355|\277\031@\217\302\365(\\\217!@\205\353Q\270\036\205\032@\312\241E\266\363\375\027@w\276\237\032/\335\027@Nb\020X94\031@\000\000\000\000\000\200\027@\306K7\211A\340\030@\210\026\331\316\367\323\026@\006\201\225C\213\354\026@\000\000\000\000\000\000\031@\332\316\367S\343\245\030@\303\365(\\\217B\026@\273I\014\002+\007\034@\037\205\353Q\270\236\031@\022\203\300\312\241\305\030@\332\316\367S\343\245\035@\201\225C\213lg\030@\177j\274t\223\230\032@\333\371~j\274\364\035@X9\264\310v\276\036@=\n\327\243p\275\030@\370S\343\245\233\304\027@\024\256G\341z\224\027@:\264\310v\276\037\026@\327\243p=\nW\031@\241E\266\363\375\324\031@6^\272I\014\202\027@\024\256G\341z\024 @w\276\237\032/]\027@\223\030\004V\016-\033@;\337O\215\227n\026@\345\320\"\333\371~\027@\350\373\251\361\322M\031@\004V\016-\262\235\025@\022\203\300\312\241E\027@j\274t\223\030\204\027@\024\256G\341z\024\026@,\207\026\331\316\367\030@\254\034Zd;\337\032@H\341z\024\256G\026@7\211A`\345P\032@/\335$\006\201\025\030@Nb\020X9\264\023@\354Q\270\036\205\353\033@;\337O\215\227\356\027@=\n\327\243p=\031@}?5^\272I\027@\274t\223\030\004\326\030@\037\205\353Q\270\236\034@\004V\016-\262\235\025@\277\237\032/\335$\026@T\343\245\233\304 \033@w\276\237\032/\335\030@6^\272I\014\202\026@\254\034Zd;_\026@w\276\237\032/]\031@\241E\266\363\375T\030@\273I\014\002+\007\027@m\347\373\251\361\322\025@=\n\327\243p\275\034@\252\361\322Mb\220\027@\335$\006\201\225C\031@\277\237\032/\335$\027@?5^\272I\014\024@\006\201\225C\213\354\027@d;\337O\215\227\034@&1\010\254\034Z\034@\256G\341z\024\256\026@\312\241E\266\363}\031@#\333\371~j\274\031@j\274t\223\030\204\033@\010\254\034Zd\273\032@\303\365(\\\217B\031@\317\367S\343\245\233\030@\341z\024\256G\341\023@\266\363\375\324xi\030@\215\227n\022\203@\035@j\274t\223\030\004\030@\217\302\365(\\\017\030@\303\365(\\\217B\032@\254\034Zd;_\024@\274t\223\030\004\326\031@_\272I\014\002\253\030@m\347\373\251\361\322\034@\000\000\000\000\000\000\033@X9\264\310v~ @\234\304 \260rh!@\356|?5^\272\030@\362\322Mb\020\330\030@\241E\266\363\375T\033@\000\000\000\000\000\300 @\201\225C\213l\347\016@}?5^\272I\026@\375\324x\351&\261\037@6^\272I\014\202\030@\037\205\353Q\270\236\031@`\345\320\"\333y\032@sh\221\355|?\031@\321\"\333\371~j\032@\324x\351&1\010\033@\201\225C\213l\347\027@\344\245\233\304 0\030@\274t\223\030\004\326\030@X9\264\310v>\034@\277\237\032/\335$\024@\240\032/\335$\206\026@\363\375\324x\351&\032@\205\353Q\270\036\205\030@)\\\217\302\365\250\031@\016-\262\235\357\247\030@\370S\343\245\233\304\031@c\020X9\264\310\032@\n\327\243p=\212\032@H\341z\024\256G\037@\037\205\353Q\270\236\027@\235\357\247\306K7\025@\246\233\304 \260r\025@\317\367S\343\245\033\030@\256G\341z\024.\032@\323Mb\020X\271\031@\345\320\"\333\371~\033@\217\302\365(\\\017\037@\\\217\302\365(\\\032@\372~j\274t\223\030@\254\034Zd;\337\027@m\347\373\251\361R\037@\210\026\331\316\367\323\027@:\264\310v\276\037\030@d;\337O\215\027\030@;\337O\215\227n\030@;\337O\215\227n\030@\366(\\\217\302\365\031@q=\n\327\243p\036@\226C\213l\347{\027@\366(\\\217\302u\030@\262\235\357\247\306\313 @\374\251\361\322Mb\030@\030\004V\016-\262\032@\337O\215\227n\222\035@\234\304 \260r\350\032@\254\034Zd;_\032@/\335$\006\201\225\027@\312\241E\266\363\375\033@\305 \260rh\221\030@\234\304 \260rh\027@\374\251\361\322Mb\030@\266\363\375\324xi\037@333333\033@\372~j\274t\223\030@\016-\262\235\357\247\025@\205\353Q\270\036\205\032@L7\211A`e\026@\354Q\270\036\205\353\033@\033/\335$\006\001\031@L7\211A`e\033@\022\203\300\312\241\305\026@33333\263\031@\317\367S\343\245\033\025@\264\310v\276\237\232\030@\000\000\000\000\000\200\032@\034Zd;\337\317\034@\254\034Zd;_\031@\037\205\353Q\270\036\030@\000\000\000\000\000\200\031@\321\"\333\371~\352\030@\215\227n\022\203@\027@\370S\343\245\233D\031@\234\304 \260rh\033@\232\231\231\231\231\031\032@\252\361\322Mb\020\032@,\207\026\331\316w\026@Nb\020X94\030@\003+\207\026\331\316\030@;\337O\215\227n\035@i\221\355|?\265\027@\205\353Q\270\036\205\023@{\024\256G\341z\027@i\221\355|?5\031@\024\256G\341z\024\036@\270\036\205\353Q\270\031@E\266\363\375\324x\032@O\215\227n\022\003\030@\311v\276\237\032\257\031@\262\235\357\247\306\313\027@\\\217\302\365(\334\027@@5^\272I\014\030@\350\373\251\361\322\315\027@\332\316\367S\343%\030@Nb\020X9\264\027@\003+\207\026\331N\035@H\341z\024\256\307\030@\246\233\304 \260\362\027@\266\363\375\324x\351\032@i\221\355|?5\037@\311v\276\237\032/\032@\006\201\225C\213\354\031@\354Q\270\036\205\353\030@L7\211A`e\025@\351&1\010\254\234\025@\222\355|?5^\030@\362\322Mb\020\330\031@\234\304 \260r\350\026@\n\327\243p=\n\032@T\343\245\233\304\240\032@X9\264\310v\276\027@\235\357\247\306K7\025@}?5^\272I\030@i\221\355|?\265\025@\201\225C\213l\347\030@t\223\030\004V\216\031@\362\322Mb\020\330\027@=\n\327\243p\275\027@\323Mb\020X9\032@\327\243p=\n\327\027@\366(\\\217\302\365\030@6^\272I\014\202\031@\372~j\274t\023\022@\321\"\333\371~j\027@\006\201\225C\213l\027@\374\251\361\322M\342\031@\024\256G\341z\024\030@\303\365(\\\217B\030@\317\367S\343\245\233\022@\021X9\264\310\366\026@\203\300\312\241E\266\032@6^\272I\014\202\030@\016-\262\235\357\247\027@\363\375\324x\351\246\030@;\337O\215\227\356\027@\366(\\\217\302\365\027@J\014\002+\207\026\025@\351&1\010\254\234\030@\177j\274t\223\230\025@\003+\207\026\331\316\027@{\024\256G\341\372\030@\027\331\316\367S\343\027@\277\237\032/\335\244\031@\333\371~j\274t\030@V\016-\262\235o\027@\201\225C\213l\347\032@\037\205\353Q\270\236\024@\332\316\367S\343\245\025@\235\357\247\306K\267\037@V\016-\262\235\357\031@\344\245\233\304 \260\030@q=\n\327\243\360\027@_\272I\014\002\253\030@\024\256G\341z\224\036@\345\320\"\333\371\376\032@\226C\213l\347{\030@J\014\002+\207\226\033@T\343\245\233\304 \033@\033/\335$\006\001\031@\337O\215\227n\222\031@\350\373\251\361\322\315\026@\021X9\264\310\366\034@D\213l\347\373\251\031@%\006\201\225C\013\032@L7\211A`\345\031@!\260rh\221\355\031@\234\304 \260r\350\032@&1\010\254\034\332\026@\254\034Zd;\337\033@\223\030\004V\016-\027@:\264\310v\276\237\023@)\\\217\302\365(\027@\r\002+\207\026\331\030@\363\375\324x\351\246\027@n\022\203\300\312!\027@\335$\006\201\225\303\036@&1\010\254\034\332\027@\250\306K7\211\301\033@\321\"\333\371~j\026@\345\320\"\333\371\376\034@Nb\020X9\264\030@\304 \260rh\021 @\006\201\225C\213l\032@\006\201\225C\213l\027@!\260rh\221m\027@\362\322Mb\020\230 @m\347\373\251\361\322\026@:\264\310v\276\237\031@\350\373\251\361\322M\031@\037\205\353Q\270\236\031@\004V\016-\262\235\031@\372~j\274t\023\024@!\260rh\221\355\030@\240\032/\335$\206\032@\000\000\000\000\000\200\027@w\276\237\032/\335\027@\317\367S\343\245\233\031@\037\205\353Q\270\036\030@\332\316\367S\343%\027@\335$\006\201\225C\033@`\345\320\"\333y\027@\033/\335$\006\201\031@X9\264\310v\276\031@\205\353Q\270\036\205\031@\274t\223\030\004\326\026@X9\264\310v\276\024@\217\302\365(\\\217\025@\341z\024\256Ga\031@\000\000\000\000\000\200\037@#\333\371~j<\030@7\211A`\345\320\031@\241E\266\363\375T\031@\345\320\"\333\371\376\030@\261rh\221\355|\014@\241E\266\363\375T\035@\261rh\221\355\374\026@Zd;\337O\215\027@\356|?5^\272\026@\210\026\331\316\367\323\033@\325x\351&1\210 @&1\010\254\034\332\026@Zd;\337O\215\020@\026\331\316\367S# @\321\"\333\371~j\034@\277\237\032/\335$\031@\252\361\322Mb\020\034@\362\322Mb\020\330\030@@5^\272I\014\027@\341z\024\256Ga\032@\004V\016-\262\035\031@\333\371~j\274\364\032@\362\322Mb\020X\030@\352&1\010\254\234\023@;\337O\215\227n\031@X9\264\310v\276\027@1\010\254\034Zd\031@R\270\036\205\353\321\026@\261rh\221\355|\031@\214l\347\373\251q\033@\241E\266\363\375\324\030@sh\221\355|?\031@\010\254\034Zd\273\026@\033/\335$\006\201\031@sh\221\355|?\033@_\272I\014\002\253\031@\241E\266\363\375\324\026@\354Q\270\036\205k\026@d;\337O\215\227\027@&1\010\254\034\332\026@\010\254\034Zd\273\031@\261rh\221\355|\027@!\260rh\221m\034@\037\205\353Q\270\236\032@@5^\272I\214\030@\300\312\241E\266s\026@\'1\010\254\034\332\023@=\n\327\243p\275\034@\324x\351&1\210\031@\303\365(\\\217B\031@\350\373\251\361\322M\033@\323Mb\020X\271\031@\362\322Mb\020X\027@\261rh\221\355|\030@\315\314\314\314\314L\032@@5^\272I\214\026@\215\227n\022\203@\027@7\211A`\345\320\035@D\213l\347\373)\034@\370S\343\245\233D\032@fffff\346\033@O\215\227n\022\203\027@\n\327\243p=\212\034@\006\201\225C\213\254 @F\266\363\375\324x\021@P\215\227n\022\203\022@\321\"\333\371~\352\030@d;\337O\215\027\031@H\341z\024\256G\037@\341z\024\256Ga\030@\273I\014\002+\007\027@Zd;\337O\215\020@\254\034Zd;\337\025@\024\256G\341z\224\030@\372~j\274t\023\030@Zd;\337O\215\027@\315\314\314\314\314\314\027@\022\203\300\312\241\305\030@\223\030\004V\016\255\030@"
      }
    }
  }
}
node {
  name: "normalize_element/component_7"
  op: "Const"
  device: "/device:CPU:0"
  attr {
    key: "_output_shapes"
    value {
      list {
        shape {
          dim {
            size: 400
          }
        }
      }
    }
  }
  attr {
    key: "dtype"
    value {
      type: DT_INT64
    }
  }
  attr {
    key: "value"
    value {
      tensor {
        dtype: DT_INT64
        tensor_shape {
          dim {
            size: 400
          }
        }
        tensor_content: "\223\001\000\000\000\000\000\000\232\002\000\000\000\000\000\000\351\000\000\000\000\000\000\0001\001\000\000\000\000\000\000I\001\000\000\000\000\000\000\330\000\000\000\000\000\000\000\233\001\000\000\000\000\000\000I\001\000\000\000\000\000\000\232\002\000\000\000\000\000\000\307\002\000\000\000\000\000\000\232\002\000\000\000\000\000\000\336\000\000\000\000\000\000\000\232\002\000\000\000\000\000\000\010\001\000\000\000\000\000\000\223\001\000\000\000\000\000\000\223\001\000\000\000\000\000\0001\001\000\000\000\000\000\000\232\002\000\000\000\000\000\000\232\002\000\000\000\000\000\000\367\000\000\000\000\000\000\000\363\000\000\000\000\000\000\000\027\001\000\000\000\000\000\000\232\002\000\000\000\000\000\000\232\002\000\000\000\000\000\000\232\002\000\000\000\000\000\000\207\001\000\000\000\000\000\000\260\001\000\000\000\000\000\000\223\001\000\000\000\000\000\000\232\002\000\000\000\000\000\000\232\002\000\000\000\000\000\000\016\001\000\000\000\000\000\000\016\001\000\000\000\000\000\000\232\002\000\000\000\000\000\0003\001\000\000\000\000\000\000\223\001\000\000\000\000\000\000\232\002\000\000\000\000\000\000\223\001\000\000\000\000\000\0003\001\000\000\000\000\000\000\232\002\000\000\000\000\000\000\265\001\000\000\000\000\000\000\340\000\000\000\000\000\000\000\232\002\000\000\000\000\000\000\265\001\000\000\000\000\000\000\265\001\000\000\000\000\000\000\223\001\000\000\000\000\000\0003\001\000\000\000\000\000\000\027\001\000\000\000\000\000\000\232\002\000\000\000\000\000\000\232\002\000\000\000\000\000\000\216\001\000\000\000\000\000\000\265\001\000\000\000\000\000\000\223\001\000\000\000\000\000\000\232\002\000\000\000\000\000\000\274\000\000\000\000\000\000\000\232\002\000\000\000\000\000\000\232\002\000\000\000\000\000\000J\001\000\000\000\000\000\0003\001\000\000\000\000\000\000\233\001\000\000\000\000\000\000\260\001\000\000\000\000\000\000\223\001\000\000\000\000\000\000\232\002\000\000\000\000\000\000\307\002\000\000\000\000\000\000\340\000\000\000\000\000\000\000\265\001\000\000\000\000\000\000\232\002\000\000\000\000\000\000\301\000\000\000\000\000\000\000\025\001\000\000\000\000\000\000\232\002\000\000\000\000\000\000\216\001\000\000\000\000\000\000\232\002\000\000\000\000\000\000\232\002\000\000\000\000\000\000J\001\000\000\000\000\000\000\232\002\000\000\000\000\000\000\037\001\000\000\000\000\000\000\232\002\000\000\000\000\000\0003\001\000\000\000\000\000\000\362\000\000\000\000\000\000\000\025\001\000\000\000\000\000\000\340\000\000\000\000\000\000\000\351\000\000\000\000\000\000\000\223\001\000\000\000\000\000\0003\001\000\000\000\000\000\000\365\000\000\000\000\000\000\000\035\001\000\000\000\000\000\000\207\001\000\000\000\000\000\000\024\001\000\000\000\000\000\000\232\002\000\000\000\000\000\0003\001\000\000\000\000\000\000\232\002\000\000\000\000\000\000(\001\000\000\000\000\000\000\232\002\000\000\000\000\000\000\232\002\000\000\000\000\000\000\232\002\000\000\000\000\000\000\232\002\000\000\000\000\000\000\274\000\000\000\000\000\000\000\367\000\000\000\000\000\000\000%\001\000\000\000\000\000\000\307\002\000\000\000\000\000\000\232\002\000\000\000\000\000\000\031\001\000\000\000\000\000\000\010\001\000\000\000\000\000\000\232\002\000\000\000\000\000\0003\001\000\000\000\000\000\000\010\001\000\000\000\000\000\000\025\001\000\000\000\000\000\000\351\000\000\000\000\000\000\000\232\002\000\000\000\000\000\000\223\001\000\000\000\000\000\000\232\002\000\000\000\000\000\000(\001\000\000\000\000\000\000\306\000\000\000\000\000\000\000!\001\000\000\000\000\000\000\232\002\000\000\000\000\000\000\031\001\000\000\000\000\000\000\037\001\000\000\000\000\000\000\t\001\000\000\000\000\000\000\376\000\000\000\000\000\000\000\232\002\000\000\000\000\000\0003\001\000\000\000\000\000\000%\001\000\000\000\000\000\000\232\002\000\000\000\000\000\000\232\002\000\000\000\000\000\0007\001\000\000\000\000\000\000\337\000\000\000\000\000\000\000\223\001\000\000\000\000\000\000\037\001\000\000\000\000\000\0003\001\000\000\000\000\000\000\016\001\000\000\000\000\000\000r\001\000\000\000\000\000\0000\001\000\000\000\000\000\000\024\001\000\000\000\000\000\000\232\002\000\000\000\000\000\000\232\002\000\000\000\000\000\000\232\002\000\000\000\000\000\000\207\001\000\000\000\000\000\000\232\002\000\000\000\000\000\000\265\001\000\000\000\000\000\000r\001\000\000\000\000\000\000\301\000\000\000\000\000\000\000I\001\000\000\000\000\000\000\256\001\000\000\000\000\000\000\340\000\000\000\000\000\000\000\301\000\000\000\000\000\000\000\232\002\000\000\000\000\000\0000\001\000\000\000\000\000\0000\001\000\000\000\000\000\000J\001\000\000\000\000\000\000;\001\000\000\000\000\000\000O\001\000\000\000\000\000\000\\\001\000\000\000\000\000\000\232\002\000\000\000\000\000\000\363\000\000\000\000\000\000\000\010\001\000\000\000\000\000\0003\001\000\000\000\000\000\0003\001\000\000\000\000\000\000\232\002\000\000\000\000\000\000\200\001\000\000\000\000\000\000\021\001\000\000\000\000\000\000\232\002\000\000\000\000\000\000\336\000\000\000\000\000\000\0003\001\000\000\000\000\000\000\232\002\000\000\000\000\000\0003\001\000\000\000\000\000\000\340\000\000\000\000\000\000\000\t\001\000\000\000\000\000\000\301\000\000\000\000\000\000\000\307\002\000\000\000\000\000\000\365\000\000\000\000\000\000\0003\001\000\000\000\000\000\000\301\000\000\000\000\000\000\000\232\002\000\000\000\000\000\000\336\000\000\000\000\000\000\000\265\001\000\000\000\000\000\000\232\002\000\000\000\000\000\000\232\002\000\000\000\000\000\000\265\001\000\000\000\000\000\000\024\001\000\000\000\000\000\000\010\001\000\000\000\000\000\000\232\002\000\000\000\000\000\000\351\000\000\000\000\000\000\000\025\001\000\000\000\000\000\000\200\001\000\000\000\000\000\0003\001\000\000\000\000\000\000\232\002\000\000\000\000\000\000\232\002\000\000\000\000\000\000\232\002\000\000\000\000\000\000_\001\000\000\000\000\000\000\232\002\000\000\000\000\000\000\232\002\000\000\000\000\000\000\232\002\000\000\000\000\000\0003\001\000\000\000\000\000\000\034\001\000\000\000\000\000\000\232\002\000\000\000\000\000\000\274\000\000\000\000\000\000\000\031\001\000\000\000\000\000\000\010\001\000\000\000\000\000\000\336\000\000\000\000\000\000\0003\001\000\000\000\000\000\000\232\002\000\000\000\000\000\000\362\000\000\000\000\000\000\0003\001\000\000\000\000\000\0003\001\000\000\000\000\000\0007\001\000\000\000\000\000\000\024\001\000\000\000\000\000\000\340\000\000\000\000\000\000\000\207\001\000\000\000\000\000\000\010\001\000\000\000\000\000\000\200\001\000\000\000\000\000\000\232\002\000\000\000\000\000\000\273\000\000\000\000\000\000\000\223\001\000\000\000\000\000\000(\001\000\000\000\000\000\000,\001\000\000\000\000\000\000\361\000\000\000\000\000\000\000\232\002\000\000\000\000\000\000\223\001\000\000\000\000\000\000\260\001\000\000\000\000\000\000\232\002\000\000\000\000\000\0003\001\000\000\000\000\000\000\223\001\000\000\000\000\000\000\232\002\000\000\000\000\000\000\232\002\000\000\000\000\000\000\232\002\000\000\000\000\000\0003\001\000\000\000\000\000\000\232\002\000\000\000\000\000\000J\001\000\000\000\000\000\000\367\000\000\000\000\000\000\000\274\000\000\000\000\000\000\0003\001\000\000\000\000\000\000\216\001\000\000\000\000\000\000\025\001\000\000\000\000\000\000\337\000\000\000\000\000\000\0007\001\000\000\000\000\000\000\232\002\000\000\000\000\000\000\223\001\000\000\000\000\000\000\337\000\000\000\000\000\000\000\232\002\000\000\000\000\000\000(\001\000\000\000\000\000\0001\001\000\000\000\000\000\000\232\002\000\000\000\000\000\000\034\001\000\000\000\000\000\000!\001\000\000\000\000\000\000\232\002\000\000\000\000\000\0000\001\000\000\000\000\000\000\024\001\000\000\000\000\000\000\307\002\000\000\000\000\000\0003\001\000\000\000\000\000\000\223\001\000\000\000\000\000\000\301\000\000\000\000\000\000\000\351\000\000\000\000\000\000\000\232\002\000\000\000\000\000\0001\001\000\000\000\000\000\0000\001\000\000\000\000\000\000\232\002\000\000\000\000\000\000\232\002\000\000\000\000\000\000(\001\000\000\000\000\000\0003\001\000\000\000\000\000\000\232\002\000\000\000\000\000\000\025\001\000\000\000\000\000\000\223\001\000\000\000\000\000\000\232\002\000\000\000\000\000\0007\001\000\000\000\000\000\000\340\000\000\000\000\000\000\000\232\002\000\000\000\000\000\000\330\000\000\000\000\000\000\000\232\002\000\000\000\000\000\000\367\000\000\000\000\000\000\000,\001\000\000\000\000\000\000\232\002\000\000\000\000\000\000\232\002\000\000\000\000\000\000,\001\000\000\000\000\000\0003\001\000\000\000\000\000\000\034\001\000\000\000\000\000\000(\001\000\000\000\000\000\000\363\000\000\000\000\000\000\000\200\001\000\000\000\000\000\000\376\000\000\000\000\000\000\000\031\001\000\000\000\000\000\0003\001\000\000\000\000\000\000\232\002\000\000\000\000\000\000\207\001\000\000\000\000\000\000\232\002\000\000\000\000\000\000!\001\000\000\000\000\000\000\232\002\000\000\000\000\000\000\260\001\000\000\000\000\000\000\025\001\000\000\000\000\000\000\337\000\000\000\000\000\000\000\363\000\000\000\000\000\000\000O\001\000\000\000\000\000\000\301\000\000\000\000\000\000\000\342\000\000\000\000\000\000\000\260\001\000\000\000\000\000\000\340\000\000\000\000\000\000\000,\001\000\000\000\000\000\000\274\000\000\000\000\000\000\000\265\001\000\000\000\000\000\000\010\001\000\000\000\000\000\0000\001\000\000\000\000\000\000\232\002\000\000\000\000\000\000\025\001\000\000\000\000\000\000\200\001\000\000\000\000\000\000\232\002\000\000\000\000\000\000\265\001\000\000\000\000\000\000\216\001\000\000\000\000\000\0003\001\000\000\000\000\000\000\223\001\000\000\000\000\000\000\034\001\000\000\000\000\000\000\223\001\000\000\000\000\000\000\021\001\000\000\000\000\000\000Q\001\000\000\000\000\000\000\000\001\000\000\000\000\000\000\340\000\000\000\000\000\000\000\037\001\000\000\000\000\000\000\232\002\000\000\000\000\000\000\232\002\000\000\000\000\000\000\223\001\000\000\000\000\000\000\223\001\000\000\000\000\000\000\207\001\000\000\000\000\000\000f\001\000\000\000\000\000\000\377\000\000\000\000\000\000\000\340\000\000\000\000\000\000\000\265\001\000\000\000\000\000\000\256\001\000\000\000\000\000\000\016\001\000\000\000\000\000\000\232\002\000\000\000\000\000\000\010\001\000\000\000\000\000\000\232\002\000\000\000\000\000\000\325\001\000\000\000\000\000\000\351\000\000\000\000\000\000\000J\001\000\000\000\000\000\0003\001\000\000\000\000\000\000\232\002\000\000\000\000\000\000\232\002\000\000\000\000\000\000\024\001\000\000\000\000\000\000\330\000\000\000\000\000\000\000\216\001\000\000\000\000\000\000\232\002\000\000\000\000\000\000\016\001\000\000\000\000\000\000\232\002\000\000\000\000\000\000\374\000\000\000\000\000\000\000\216\001\000\000\000\000\000\000\216\001\000\000\000\000\000\0003\001\000\000\000\000\000\000\223\001\000\000\000\000\000\000,\001\000\000\000\000\000\000N\001\000\000\000\000\000\000\232\002\000\000\000\000\000\0000\001\000\000\000\000\000\000\265\001\000\000\000\000\000\000\365\000\000\000\000\000\000\000\232\002\000\000\000\000\000\000\232\002\000\000\000\000\000\000\232\002\000\000\000\000\000\000\232\002\000\000\000\000\000\000\330\000\000\000\000\000\000\000\016\001\000\000\000\000\000\000\037\001\000\000\000\000\000\000J\001\000\000\000\000\000\000`\001\000\000\000\000\000\000\232\002\000\000\000\000\000\000J\001\000\000\000\000\000\000\260\001\000\000\000\000\000\000I\001\000\000\000\000\000\000\232\002\000\000\000\000\000\000\200\001\000\000\000\000\000\000\274\000\000\000\000\000\000\000\232\002\000\000\000\000\000\000\216\001\000\000\000\000\000\0009\001\000\000\000\000\000\000%\001\000\000\000\000\000\000\376\000\000\000\000\000\000\000\037\001\000\000\000\000\000\000\200\001\000\000\000\000\000\000\223\001\000\000\000\000\000\000(\001\000\000\000\000\000\000\265\001\000\000\000\000\000\0003\001\000\000\000\000\000\000\364\000\000\000\000\000\000\000f\001\000\000\000\000\000\0000\001\000\000\000\000\000\000\222\001\000\000\000\000\000\000Y\001\000\000\000\000\000\000\222\001\000\000\000\000\000\0003\001\000\000\000\000\000\000\232\002\000\000\000\000\000\000\232\002\000\000\000\000\000\000\232\002\000\000\000\000\000\000\216\001\000\000\000\000\000\000\330\000\000\000\000\000\000\000,\001\000\000\000\000\000\000\265\001\000\000\000\000\000\000\232\002\000\000\000\000\000\000\223\001\000\000\000\000\000\000\034\001\000\000\000\000\000\000\207\001\000\000\000\000\000\000\024\001\000\000\000\000\000\0003\001\000\000\000\000\000\000\232\002\000\000\000\000\000\000\351\000\000\000\000\000\000\000"
      }
    }
  }
}
node {
  name: "normalize_element/component_8"
  op: "Const"
  device: "/device:CPU:0"
  attr {
    key: "_output_shapes"
    value {
      list {
        shape {
          dim {
            size: 400
          }
        }
      }
    }
  }
  attr {
    key: "dtype"
    value {
      type: DT_DOUBLE
    }
  }
  attr {
    key: "value"
    value {
      tensor {
        dtype: DT_DOUBLE
        tensor_shape {
          dim {
            size: 400
          }
        }
        tensor_content: "\000\000\000\000\000\000\000\000\000\000\000\000\000\000\000\000\000\000\000\000\000\000\000\000\000\000\000\000\000\000\000\000\000\000\000\000\000\000T@\000\000\000\000\000\0004@\000\000\000\000\000\000N@\000\000\000\000\000\000A@\000\000\000\000\000\000\000\000\000\000\000\000\000\000\000\000\000\000\000\000\000\000\000\000\000\000\000\000\000\200@@\000\000\000\000\000\000\000\000\000\000\000\000\000\0004@\000\000\000\000\000\000\000\000\000\000\000\000\000\000\000\000\000\000\000\000\000\000\000\000\000\000\000\000\000\000\000\000\000\000\000\000\000\000\000\000\000\000\000\000\000\000\000\000\000\000\000\000\000\0005@\000\000\000\000\000\000\000\000\000\000\000\000\000\000\000\000\000\000\000\000\000\000\000\000\000\000\000\000\000\000\000\000\000\000\000\000\000\000\000\000\000\000\000\000\000\000\000\000\000\000\000\000\000\000\000\000\000\000\000\000\000\000\000\000\000\000\000\000\000\000\000\000\000\000\000\000\000\000\000\000\000\000\000\000\000\000\000\000\000\000\000\000\000\000\000\000\000\000\000\000\000\000\000\000\000\000\000\000\000\000\000\000\000\000\000\000\000\000\000\000\000\000\000\000\000\000\000\000\000\000\000\000\000\000\000\000\000\000\000\000\000\000\000\000\000\000\000\000\000\000\000\000\000\000\000\000\000\000\000\000\000\000\000\000\000\000\000\000\000\000\000\000\000\000\000\000\000\000\000\000\000\000\000\000\000\000\000\000\000\000\000\000\000\000\000\000\000\000\000\000\000\000\000\000\000\000\000\000\000\000\000\000\000\000\000\000\000\000\000\000\000\000\000\000\000\000\000\000\000\000\000\000\000\000\000\000\000\000\000\000\000\000\000\000\000\000\000\000\000\000\000\000\000\000\000\000\000\000\000\000\000\000\000\000\000\000\000\000\000\000\000\000\000\000\000\000\000\000\000\000\000\000\000\000\000\0006@\000\000\000\000\000\000\000\000\000\000\000\000\000\000N@\000\000\000\000\000\000\000\000\000\000\000\000\000\000\000\000\000\000\000\000\000\000\000\000\000\000\000\000\000\000\000\000\000\000\000\000\000\000\000\000\000\000\000\000\000\000\000\000\000\000\000\000\000\000\000\000\000\000\000\000\000\000\000\000\000\000\000\000\000\000\000\000\000\000\000\000\000\000\000\000\000\000\000\000\000\200F@\000\000\000\000\000\000\000\000\000\000\000\000\000\000\000\000\000\000\000\000\000\0006@\000\000\000\000\000\000\000\000\000\000\000\000\000\000\000\000\000\000\000\000\000\000\000\000\000\000\000\000\000\000\000\000\000\000\000\000\000\000\000\000\000\000\000\000\000\000\000\000\000\000\000\000\000\000\000\000\000\000\000\000\000\000\000\000\000\000\000\000\000\000\000\000\000\000\000\000\000\000\000\000\000\000\000\000\000\000T@\000\000\000\000\000\200V@\000\000\000\000\000\000\000\000\000\000\000\000\000\000\000\000\000\000\000\000\000\000\000\000\000\000\000\000\000\000\000\000\000\000\000\000\000\000\000\000\000\000\000\000\000\000\000\000\000\000\000\000\000\000\000\000\000\000\000\000\000\000\000\000\000\000\000\000\000\000\000\000\000\000\000\000\000\000\000\000\000\000\000\000\000\000\000\000\000\000\000\000\000\000\000\000\000\000\000\000\000@J@\000\000\000\000\000\000\000\000\000\000\000\000\000\000\000\000\000\000\000\000\000\0009@\000\000\000\000\000\0004@\000\000\000\000\000\000\000\000\000\000\000\000\000\000\000\000\000\000\000\000\000\0004@\000\000\000\000\000\000\000\000\000\000\000\000\000\000\000\000\000\000\000\000\000\000\000\000\000\000\000\000\000\000\000\000\000\000\000\000\000\000\000\000\000\000\000\000\000\000\000\000\000\000\000\000\000\200V@\000\000\000\000\000\000\000\000\000\000\000\000\000\000\000\000\000\000\000\000\000\0009@\000\000\000\000\000\000\000\000\000\000\000\000\000\000N@\000\000\000\000\000\000D@\000\000\000\000\000\000\000\000\000\000\000\000\000\000\000\000\000\000\000\000\000@J@\000\000\000\000\000\000\000\000\000\000\000\000\000\000\000\000\000\000\000\000\000\000)@\000\000\000\000\000\0004@\000\000\000\000\000\000\000\000\000\000\000\000\000\000\000\000\000\000\000\000\000\000\000\000\000\000\000\000\000\000<@\000\000\000\000\000\200K@\000\000\000\000\000\000\000\000\000\000\000\000\000\000\000\000\000\000\000\000\000\000\000\000\000\000\000\000\000\000\000\000\000\000\000\000\000\000\000\000\000\000\000\000\000\000\000\000\000\000\000\000\000\000\000\000\000\000\000\000\000\000\000\000\000\000\000\000\000\200K@\000\000\000\000\000\000\000\000\000\000\000\000\000\000A@\000\000\000\000\000\000\000\000\000\000\000\000\000\000\000\000\000\000\000\000\000\000\000\000\000\000\000\000\000\000\000\000\000\000\000\000\000\200A@\000\000\000\000\000\000\000\000\000\000\000\000\000\0006@\000\000\000\000\000\000T@\000\000\000\000\000\000D@\000\000\000\000\000\240T@\000\000\000\000\000\000\000\000\000\000\000\000\000\0005@\000\000\000\000\000\0004@\000\000\000\000\000\000\000\000\000\000\000\000\000\000\000\000\000\000\000\000\000\000\000\000\000\000\000\000\000\000\000\000\000\000\000\000\000\000\000\000\000\000\000\000\000\000\000\000\000\000\000\000\000\000\000\000\000\000\000\000\000\000\000\000\000\000\000\000\000\000\000\000\000\000\000\000\000\000\000\000\000\000\000\000\000\300W@\000\000\000\000\000\000N@\000\000\000\000\000\000\000\000\000\000\000\000\000\000\000\000\000\000\000\000\000\000T@\000\000\000\000\000\000\000\000\000\000\000\000\000\000\000\000\000\000\000\000\000\000\000\000\000\000\000\000\000\200@@\000\000\000\000\000\000\000\000\000\000\000\000\000\000\000\000\000\000\000\000\000\000\000\000\000\000\000\000\000\000\000\000\000\000\000\000\000\000\000\000\000\000\000\000\000\0004@\000\000\000\000\000\000\000\000\000\000\000\000\000\000\000\000\000\000\000\000\000\000\000\000\000\000\000\000\000\000\000\000\000\000\000\000\000\000\000\000\000\000\000\000\000\000\000\000\000\000\000\000\000\000\000\000\000\000\000\000\000\000\000\000\000\000\000\000\000@U@\000\000\000\000\000\000\000\000\000\000\000\000\000\000\000\000\000\000\000\000\000\000\000\000\000\000\000\000\000\000\000\000\000\000\000\000\000\0009@\000\000\000\000\000\000\000\000\000\000\000\000\000\000\000\000\000\000\000\000\000\0009@\000\000\000\000\000\0004@\000\000\000\000\000\000\000\000\000\000\000\000\000\000\000\000\000\000\000\000\000\000\000\000\000\000\000\000\000\000\000\000\000\000\000\000\000\000\000\000\000\000\000\000\000\000\000\000\000\000\000\000\000\000)@\000\000\000\000\000\000\000\000\000\000\000\000\000\000\000\000\000\000\000\000\000\000\000\000\000\000\000\000\000\0004@\000\000\000\000\000\000\000\000\000\000\000\000\000\000\000\000\000\000\000\000\000\200V@\000\000\000\000\000\000\000\000\000\000\000\000\000\000\000\000\000\000\000\000\000\000>@\000\000\000\000\000\000T@\000\000\000\000\000\000\000\000\000\000\000\000\000\000\000\000\000\000\000\000\000\000\000\000\000\000\000\000\000\000\000\000\000\000\000\000\000\000\000\000\000\000\000\000\000\000\000\000\000\000\000\000\000\000\000\000\000\000\000\000\000\000\000\000\000\000\000\000\000\000\000\000\000\000\000\000\000\000\000\000\000\000\000\000\000\000\000\000\000\000\000\000\000\0006@\000\000\000\000\000\000\000\000\000\000\000\000\000\000\000\000\000\000\000\000\000\000\000\000\000\000\000\000\000\200F@\000\000\000\000\000\000\000\000\000\000\000\000\000\0004@\000\000\000\000\000\000)@\000\000\000\000\000\000\000\000\000\000\000\000\000\000\000\000\000\000\000\000\000\0004@\000\000\000\000\000\000\000\000\000\000\000\000\000\000\000\000\000\000\000\000\000\000\000\000\000\000\000\000\000\000\000\000\000\000\000\000\000\0009@\000\000\000\000\000\000\000\000\000\000\000\000\000\000\000\000\000\000\000\000\000\000\000\000\000\000\000\000\000\000\000\000\000\000\000\000\000\000\000\000\000\000\000\000\000\000\000\000\000\000\000\000\000\000\000\000\000\000\000\000\000\000\000\000\000\000\000\000\000\000\000\000\000\000\000\000\000\000\000\000\000\000\000\000\000\000\000\000\000\000\000\000\000\000\000\000\000\000\000\000\000\000\000\000\000\000\000\000\000\000\000\000\000\000\000\000\000\000\000\000\000\000\000\000\000\000\000\000\000\000\000\000\000\000\000\000\000\000\000\000\000\000\000\000\000\000\000\000\000\000\000\000\000\000\000\000\000\000\000\000\000\000\000\000\000\000)@\000\000\000\000\000\000\000\000\000\000\000\000\000\000\000\000\000\000\000\000\000\0004@\000\000\000\000\000\000\000\000\000\000\000\000\000\000\000\000\000\000\000\000\000\000>@\000\000\000\000\000\000\000\000\000\000\000\000\000\000\000\000\000\000\000\000\000\000>@\000\000\000\000\000\000\000\000\000\000\000\000\000\200A@\000\000\000\000\000\000\000\000\000\000\000\000\000\0005@\000\000\000\000\000\000\000\000\000\000\000\000\000\000D@\000\000\000\000\000\0009@\000\000\000\000\000\000\000\000\000\000\000\000\000\000\000\000\000\000\000\000\000\000\000\000\000\000\000\000\000\000\000\000\000\000\000\000\000\000\000\000\000\000\000\000\000\000\000\000\000\000\000\000\000\000\000\000\000\000\000\000\000\000\000\000\000\000\000\000\000\0004@\000\000\000\000\000\0005@\000\000\000\000\000\000D@\000\000\000\000\000\000\000\000\000\000\000\000\000\200V@\000\000\000\000\000\000\000\000\000\000\000\000\000\300W@\000\000\000\000\000\000>@\000\000\000\000\000\000\000\000\000\000\000\000\000\000\000\000\000\000\000\000\000\0004@\000\000\000\000\000\200A@\000\000\000\000\000\000\000\000\000\000\000\000\000\000\000\000\000\000\000\000\000\000\000\000\000\000\000\000\000\000\000\000\000\000\000\000\000\000\000\000\000\000\000\000\000\000\000\000\000\000\000\000\000\000\000\000\000\000\000\000\000\000\000\000\000\000\000\000\000\0009@\000\000\000\000\000\000\000\000\000\000\000\000\000\000\000\000\000\000\000\000\000\000T@\000\000\000\000\000\000Y@\000\000\000\000\000\000\000\000\000\000\000\000\000\000\000\000\000\000\000\000\000\000\000\000\000\000\000\000\000\000\000\000\000\000\000\000\000\000\000\000\000\000\000\000\000\000\000\000\000\000\000\000\000\000\000\000\000\000\000\000\000\200Q@\000\000\000\000\000\000T@\000\000\000\000\000\000\000\000\000\000\000\000\000\000\000\000\000\000\000\000\000\000\000\000\000\000\000\000\000\000<@\000\000\000\000\000\000\000\000\000\000\000\000\000\0004@\000\000\000\000\000\000\000\000\000\000\000\000\000\300R@\000\000\000\000\000\000\000\000\000\000\000\000\000\0006@\000\000\000\000\000\000\000\000\000\000\000\000\000\000\000\000\000\000\000\000\000\000\000\000\000\000\000\000\000\000\000\000\000\000\000\000\000\2001@\000\000\000\000\000\000\000\000\000\000\000\000\000\000\000\000\000\000\000\000\000\000<@\000\000\000\000\000\000\000\000\000\000\000\000\000\300R@\000\000\000\000\000\000\000\000\000\000\000\000\000\200F@\000\000\000\000\000\000\000\000\000\000\000\000\000\000\000\000\000\000\000\000\000\000>@\000\000\000\000\000\000T@\000\000\000\000\000\000\000\000\000\000\000\000\000\000\000\000\000\000\000\000\000\000\000\000\000\000\000\000\000\000T@\000\000\000\000\000\000\000\000\000\000\000\000\000\000\000\000\000\000\000\000\000\000\000\000\000\000\000\000\000\000\000\000\000\000\000\000\000\0004@\000\000\000\000\000\000\000\000\000\000\000\000\000\000\000\000\000\000\000\000\000\0006@\000\000\000\000\000\000\000\000\000\000\000\000\000\000\000\000\000\000\000\000\000\0006@\000\000\000\000\000\000\000\000\000\000\000\000\000\000T@\000\000\000\000\000\000\000\000\000\000\000\000\000\000\000\000\000\000\000\000\000\000\000\000\000\000\000\000\000\000\000\000\000\000\000\000\000\200F@\000\000\000\000\000@U@\000\000\000\000\000@J@\000\000\000\000\000\000D@\000\000\000\000\000\000\000\000\000\000\000\000\000\000\000\000\000\000\000\000\000\000\000\000\000\000\000\000\000\0002@\000\000\000\000\000\000\000\000\000\000\000\000\000\000\000\000\000\000\000\000\000\200V@\000\000\000\000\000\200Q@\000\000\000\000\000\000\000\000\000\000\000\000\000\300W@\000\000\000\000\000\000)@\000\000\000\000\000\300W@\000\000\000\000\000\000\000\000\000\000\000\000\000\000\000\000\000\000\000\000\000\000\000\000\000\000\000\000\000\000\000\000\000\000\000\000\000\000\000\000\000\000\000\000\000\0004@\000\000\000\000\000\000>@\000\000\000\000\000\000\000\000\000\000\000\000\000\000\000\000\000\000\000\000\000\000\000\000\000\000\000\000\000\0009@\000\000\000\000\000\000\000\000\000\000\000\000\000\000\000\000\000\000\000\000\000\000\000\000\000\000\000\000\000\000\000\000\000\000\000\000\000\000\000\000"
      }
    }
  }
}
node {
  name: "normalize_element/component_9"
  op: "Const"
  device: "/device:CPU:0"
  attr {
    key: "_output_shapes"
    value {
      list {
        shape {
          dim {
            size: 400
          }
        }
      }
    }
  }
  attr {
    key: "dtype"
    value {
      type: DT_DOUBLE
    }
  }
  attr {
    key: "value"
    value {
      tensor {
        dtype: DT_DOUBLE
        tensor_shape {
          dim {
            size: 400
          }
        }
        tensor_content: "\315\314\314\314\314\3147@ffffff)@\232\231\231\231\231\231:@33333\2635@\315\314\314\314\314LA@33333\263A@\232\231\231\231\231\2312@\315\314\314\314\314\214@@ffffff0@ffffff.@\000\000\000\000\000\000\024@ffffff<@\000\000\000\000\000\0009@33333\263>@333333/@fffff\246D@3333338@3333337@fffff\3465@\232\231\231\231\231\231:@ffffff7@33333\2638@\315\314\314\314\314\314-@\000\000\000\000\000\000I@ffffff2@\315\314\314\314\314\3145@\315\314\314\314\314L3@\000\000\000\000\000\000;@\232\231\231\231\231\231*@ffffff\'@\232\231\231\231\231\2317@\000\000\000\000\000\0006@\232\231\231\231\231\231+@33333\263?@\000\000\000\000\000\0009@\315\314\314\314\314\314+@\000\000\000\000\000\000I@\232\231\231\231\231YG@333333,@ffffff1@\000\000\000\000\000\2002@\000\000\000\000\000\000!@\232\231\231\231\231\0312@3333333@\315\314\314\314\314\3147@\315\314\314\314\314\314B@\000\000\000\000\000\0004@\232\231\231\231\231\231*@fffff\346;@\315\314\314\314\314L4@\232\231\231\231\231\2313@\232\231\231\231\231\2313@\000\000\000\000\000\000%@\315\314\314\314\314\3142@\232\231\231\231\231\231(@\000\000\000\000\000\0007@333333:@333333+@\232\231\231\231\231\0318@3333333@333333-@\315\314\314\314\314\314=@\232\231\231\231\231\0314@33333\2634@ffffff2@ffffff5@33333\363B@\315\314\314\314\314L3@\232\231\231\231\231\231&@\000\000\000\000\000\000@@\000\000\000\000\000\000I@\232\231\231\231\231\231)@\232\231\231\231\231\2311@\315\314\314\314\314\314-@3333336@\000\000\000\000\000\000.@3333334@\232\231\231\231\231YA@\232\231\231\231\231\2316@3333336@\000\000\000\000\000\0004@\232\231\231\231\231\231.@\315\314\314\314\314L8@fffff\246B@\232\231\231\231\231\031@@\232\231\231\231\231\0317@\000\000\000\000\000\0007@\315\314\314\314\314\314\034@\000\000\000\000\000\200;@\000\000\000\000\000\000I@\232\231\231\231\231\2318@ffffff!@\000\000\000\000\000\000I@\315\314\314\314\314\314*@\000\000\000\000\000\000.@\315\314\314\314\314L4@\000\000\000\000\000\2006@\315\314\314\314\314\3148@333333 @\232\231\231\231\231\231\'@fffff\3466@\000\000\000\000\000@B@33333\2637@fffff&H@\000\000\000\000\000\000I@\000\000\000\000\000\0009@33333\2638@333333,@\000\000\000\000\000\000I@\232\231\231\231\231\0317@\232\231\231\231\231\0317@\000\000\000\000\000\000I@fffff\3467@\000\000\000\000\000\000)@fffff\3467@\000\000\000\000\000\0007@\232\231\231\231\231\031=@333333@@ffffff)@\232\231\231\231\231\231-@3333337@\000\000\000\000\000\0009@ffffff#@\000\000\000\000\000\2000@ffffff8@\232\231\231\231\231\231+@\000\000\000\000\000\0009@33333\2635@fffff\3466@fffff\3467@\315\314\314\314\314\3146@fffff\346E@\232\231\231\231\231\2314@\315\314\314\314\314\314$@\315\314\314\314\314\3144@\315\314\314\314\314\3140@\315\314\314\314\314\314%@\000\000\000\000\000\0002@333333?@fffff\346C@\000\000\000\000\000\0006@\315\314\314\314\314\3143@33333\2632@\000\000\000\000\000\000I@\232\231\231\231\231\231!@ffffff3@ffffff3@\315\314\314\314\314L8@fffff\3465@fffff\3466@fffff&E@\232\231\231\231\231\2314@\000\000\000\000\000\2004@ffffffH@3333332@\000\000\000\000\000\0005@\315\314\314\314\314\3141@\000\000\000\000\000\200;@ffffff6@\232\231\231\231\231\231 @33333\263@@ffffff.@333333\031@\000\000\000\000\000\000+@\000\000\000\000\000@H@\232\231\231\231\231\031?@\232\231\231\231\231\031B@\000\000\000\000\000\000\034@fffff\346;@\315\314\314\314\314\314+@\232\231\231\231\231\231B@333333)@333333<@3333330@\232\231\231\231\231\0310@\315\314\314\314\314\314\034@\315\314\314\314\314\3141@ffffff<@fffff\346@@\315\314\314\314\314\314\034@\232\231\231\231\231\2310@\232\231\231\231\231\031<@ffffff3@\232\231\231\231\231\2310@\000\000\000\000\000\2003@\000\000\000\000\000\200;@333333,@\232\231\231\231\231\0317@3333331@3333337@\315\314\314\314\314\314%@\000\000\000\000\000\200?@\232\231\231\231\231\2313@ffffff$@\000\000\000\000\000\0006@\315\314\314\314\314\3148@\315\314\314\314\314\214E@33333\263<@\232\231\231\231\231\031>@\232\231\231\231\231\0313@\232\231\231\231\231\2315@ffffff4@\232\231\231\231\231\2313@fffff\3466@\000\000\000\000\000\2005@\232\231\231\231\231\0315@\000\000\000\000\000\2008@\000\000\000\000\000\000?@33333\2635@ffffff\026@\232\231\231\231\231\031>@\000\000\000\000\000\000I@ffffff=@33333\2637@\232\231\231\231\231\0314@\232\231\231\231\231\231 @\315\314\314\314\314\314*@33333\2632@333333#@3333332@\315\314\314\314\314L7@3333331@\000\000\000\000\000\000+@\000\000\000\000\000\000(@\000\000\000\000\000\000-@\232\231\231\231\231\231+@\000\000\000\000\000\2004@fffff\3467@\000\000\000\000\000\2004@\232\231\231\231\231\0317@\315\314\314\314\314\314=@33333\2635@3333339@\000\000\000\000\000\000.@\000\000\000\000\000\000\034@33333\2636@\232\231\231\231\231\0315@333333*@3333337@\315\314\314\314\314\3146@\000\000\000\000\000\000%@33333\2632@\232\231\231\231\231\231<@33333\2636@\315\314\314\314\314\3141@ffffff5@333333+@\000\000\000\000\000\2001@333333*@\232\231\231\231\231\231=@\315\314\314\314\314\314,@\000\000\000\000\000\0003@ffffff7@\315\314\314\314\314L4@33333\2630@\232\231\231\231\231\0313@\232\231\231\231\231\2316@\000\000\000\000\000\000=@\315\314\314\314\314L0@33333\2637@\000\000\000\000\000\000I@33333\2630@\232\231\231\231\231\031;@\000\000\000\000\000\0003@fffff\3463@\000\000\000\000\000\000G@\315\314\314\314\314\314*@3333336@\000\000\000\000\000\0006@\000\000\000\000\000\000\036@fffff\3463@33333\2637@333333*@\232\231\231\231\231Y@@\232\231\231\231\231\2317@\000\000\000\000\000\0009@\315\314\314\314\314\3143@\232\231\231\231\231\031=@\000\000\000\000\000\000<@ffffff)@\315\314\314\314\314\314$@\315\314\314\314\314L2@\232\231\231\231\231\231+@\315\314\314\314\314L4@\315\314\314\314\314\3141@\315\314\314\314\314\3142@\000\000\000\000\000\2006@\232\231\231\231\231\231A@33333\2633@\232\231\231\231\231\231:@ffffff:@33333\263A@3333335@\000\000\000\000\000\000I@\315\314\314\314\314L7@\315\314\314\314\314L1@\232\231\231\231\231\231*@\000\000\000\000\000\000I@\232\231\231\231\231\0311@\232\231\231\231\231\0311@ffffff8@\232\231\231\231\231\2312@333333(@\315\314\314\314\314\314,@3333335@\232\231\231\231\231\0319@ffffff1@\000\000\000\000\000\0000@\315\314\314\314\314L6@\315\314\314\314\314\314\'@ffffff3@\232\231\231\231\231\231?@\000\000\000\000\000\2003@\232\231\231\231\231\0317@\232\231\231\231\231\231,@333333*@ffffff3@\315\314\314\314\314\3141@33333\2633@\000\000\000\000\000\2006@\000\000\000\000\000\000I@\232\231\231\231\231\2314@\232\231\231\231\231\0311@\232\231\231\231\231\2316@\232\231\231\231\231\2314@\000\000\000\000\000\200;@\000\000\000\000\000\000B@\000\000\000\000\000\000!@fffff\3462@\315\314\314\314\314L3@\232\231\231\231\231\231=@ffffffF@333333.@\315\314\314\314\314\314\'@\232\231\231\231\231YC@\000\000\000\000\000\200@@ffffff5@\000\000\000\000\000\000I@\000\000\000\000\000\0009@\315\314\314\314\314\3145@\315\314\314\314\314\314>@\000\000\000\000\000\0004@\000\000\000\000\000\200>@\000\000\000\000\000\0008@\232\231\231\231\231\231\'@3333336@\232\231\231\231\231\2314@\000\000\000\000\000\000-@3333330@\000\000\000\000\000\0007@\000\000\000\000\000\200<@ffffff\'@3333335@\000\000\000\000\000\000\024@33333\2631@\315\314\314\314\314\214A@\232\231\231\231\231\2316@\000\000\000\000\000\2002@\000\000\000\000\000\2002@3333331@\232\231\231\231\231\0314@\000\000\000\000\000\2008@ffffff4@\315\314\314\314\314L>@ffffff.@\315\314\314\314\314L3@ffffff/@fffff\3465@33333sA@33333\2638@\315\314\314\314\314L6@\315\314\314\314\314\214@@\232\231\231\231\231\2318@\000\000\000\000\000\2003@\000\000\000\000\000\2005@\000\000\000\000\000\0008@\232\231\231\231\231\231,@\000\000\000\000\000\000-@\000\000\000\000\000\000F@\000\000\000\000\000\000=@\315\314\314\314\314\3147@33333sA@\000\000\000\000\000\0006@33333s@@\232\231\231\231\231\331D@\232\231\231\231\231\231!@fffff\3461@ffffff5@\232\231\231\231\231\0318@33333\263F@\232\231\231\231\231\0314@333333/@\232\231\231\231\231\231+@333333/@\315\314\314\314\314L7@3333335@\315\314\314\314\314L7@ffffff*@\000\000\000\000\000\000&@\315\314\314\314\314L9@"
      }
    }
  }
}
node {
  name: "TensorSliceDataset"
  op: "TensorSliceDataset"
  input: "normalize_element/component_0"
  input: "normalize_element/component_1"
  input: "normalize_element/component_2"
  input: "normalize_element/component_3"
  input: "normalize_element/component_4"
  input: "normalize_element/component_5"
